{
  "version": "1.0",
  "truncation": null,
  "padding": null,
  "added_tokens": [
    {
      "id": 0,
      "content": "<unk>",
      "single_word": false,
      "lstrip": false,
      "rstrip": false,
      "normalized": false,
      "special": true
    },
    {
      "id": 1,
      "content": "<bos>",
      "single_word": false,
      "lstrip": false,
      "rstrip": false,
      "normalized": false,
      "special": true
    },
    {
      "id": 2,
      "content": "<eos>",
      "single_word": false,
      "lstrip": false,
      "rstrip": false,
      "normalized": false,
      "special": true
    }
  ],
  "normalizer": null,
  "pre_tokenizer": {
    "type": "ByteLevel",
    "add_prefix_space": true,
    "trim_offsets": true,
    "use_regex": true
  },
  "post_processor": null,
  "decoder": {
    "type": "ByteLevel",
    "add_prefix_space": true,
    "trim_offsets": true,
    "use_regex": true
  },
  "model": {
    "type": "BPE",
    "dropout": null,
    "unk_token": "<unk>",
    "continuing_subword_prefix": null,
    "end_of_word_suffix": null,
    "fuse_unk": false,
    "byte_fallback": false,
    "ignore_merges": false,
    "vocab": {
      "<unk>": 0,
      "<bos>": 1,
      "<eos>": 2,
      "!": 3,
      "\"": 4,
      "#": 5,
      "$": 6,
      "%": 7,
      "&": 8,
      "'": 9,
      "(": 10,
      ")": 11,
      "*": 12,
      "+": 13,
      ",": 14,
      "-": 15,
      ".": 16,
      "/": 17,
      "0": 18,
      "1": 19,
      "2": 20,
      "3": 21,
      "4": 22,
      "5": 23,
      "6": 24,
      "7": 25,
      "8": 26,
      "9": 27,
      ":": 28,
      ";": 29,
      "<": 30,
      "=": 31,
      ">": 32,
      "?": 33,
      "@": 34,
      "A": 35,
      "B": 36,
      "C": 37,
      "D": 38,
      "E": 39,
      "F": 40,
      "G": 41,
      "H": 42,
      "I": 43,
      "J": 44,
      "K": 45,
      "L": 46,
      "M": 47,
      "N": 48,
      "O": 49,
      "P": 50,
      "Q": 51,
      "R": 52,
      "S": 53,
      "T": 54,
      "U": 55,
      "V": 56,
      "W": 57,
      "X": 58,
      "Y": 59,
      "Z": 60,
      "[": 61,
      "\\": 62,
      "]": 63,
      "^": 64,
      "_": 65,
      "`": 66,
      "a": 67,
      "b": 68,
      "c": 69,
      "d": 70,
      "e": 71,
      "f": 72,
      "g": 73,
      "h": 74,
      "i": 75,
      "j": 76,
      "k": 77,
      "l": 78,
      "m": 79,
      "n": 80,
      "o": 81,
      "p": 82,
      "q": 83,
      "r": 84,
      "s": 85,
      "t": 86,
      "u": 87,
      "v": 88,
      "w": 89,
      "x": 90,
      "y": 91,
      "z": 92,
      "{": 93,
      "|": 94,
      "}": 95,
      "~": 96,
      "¡": 97,
      "¢": 98,
      "£": 99,
      "¤": 100,
      "¥": 101,
      "¦": 102,
      "§": 103,
      "¨": 104,
      "©": 105,
      "ª": 106,
      "«": 107,
      "¬": 108,
      "®": 109,
      "¯": 110,
      "°": 111,
      "±": 112,
      "²": 113,
      "³": 114,
      "´": 115,
      "µ": 116,
      "¶": 117,
      "·": 118,
      "¸": 119,
      "¹": 120,
      "º": 121,
      "»": 122,
      "¼": 123,
      "½": 124,
      "¾": 125,
      "¿": 126,
      "Â": 127,
      "Ã": 128,
      "Ä": 129,
      "Å": 130,
      "Æ": 131,
      "Ç": 132,
      "È": 133,
      "É": 134,
      "Ê": 135,
      "Ë": 136,
      "Ì": 137,
      "Í": 138,
      "Î": 139,
      "Ï": 140,
      "Ð": 141,
      "Ñ": 142,
      "Ò": 143,
      "Ô": 144,
      "Õ": 145,
      "×": 146,
      "Ø": 147,
      "Ù": 148,
      "Û": 149,
      "ß": 150,
      "à": 151,
      "á": 152,
      "â": 153,
      "ã": 154,
      "ä": 155,
      "å": 156,
      "æ": 157,
      "ç": 158,
      "è": 159,
      "é": 160,
      "ê": 161,
      "ë": 162,
      "ì": 163,
      "í": 164,
      "î": 165,
      "ï": 166,
      "ð": 167,
      "ĉ": 168,
      "Ċ": 169,
      "Ĕ": 170,
      "Ě": 171,
      "Ġ": 172,
      "Ģ": 173,
      "ģ": 174,
      "Ĥ": 175,
      "ĥ": 176,
      "Ħ": 177,
      "ħ": 178,
      "Ĩ": 179,
      "ĩ": 180,
      "Ī": 181,
      "ī": 182,
      "Ĭ": 183,
      "ĭ": 184,
      "Į": 185,
      "į": 186,
      "İ": 187,
      "ı": 188,
      "Ĳ": 189,
      "ĳ": 190,
      "Ĵ": 191,
      "ĵ": 192,
      "Ķ": 193,
      "ķ": 194,
      "ĸ": 195,
      "Ĺ": 196,
      "ĺ": 197,
      "Ļ": 198,
      "ļ": 199,
      "Ľ": 200,
      "ľ": 201,
      "Ŀ": 202,
      "ŀ": 203,
      "Ł": 204,
      "ł": 205,
      "Ń": 206,
      "Ġt": 207,
      "Ġa": 208,
      "he": 209,
      "in": 210,
      "re": 211,
      "Ġthe": 212,
      "on": 213,
      "er": 214,
      "Ġs": 215,
      "at": 216,
      "Ġc": 217,
      "en": 218,
      "Ġw": 219,
      "or": 220,
      "is": 221,
      "ou": 222,
      "es": 223,
      "it": 224,
      "ing": 225,
      "Ġf": 226,
      "an": 227,
      "Ġan": 228,
      "Ġp": 229,
      "Ġb": 230,
      "Ġm": 231,
      "Ġo": 232,
      "Ġto": 233,
      "al": 234,
      "Ġin": 235,
      "Ġd": 236,
      "le": 237,
      "ar": 238,
      "ed": 239,
      "Ġand": 240,
      "ion": 241,
      "us": 242,
      "Ġof": 243,
      "Ġth": 244,
      "ic": 245,
      "as": 246,
      "ĠI": 247,
      "Ġh": 248,
      "om": 249,
      "ot": 250,
      "ent": 251,
      "Ġn": 252,
      "Ġre": 253,
      "Ġl": 254,
      "ct": 255,
      "Ġe": 256,
      "Ġis": 257,
      "ve": 258,
      "Ġy": 259,
      "ly": 260,
      "et": 261,
      "ĠT": 262,
      "Ġg": 263,
      "ow": 264,
      "ll": 265,
      "Ġyou": 266,
      "st": 267,
      "ro": 268,
      "im": 269,
      "id": 270,
      "ut": 271,
      "Ġthat": 272,
      "Ġbe": 273,
      "Ġit": 274,
      "Ġst": 275,
      "ce": 276,
      "am": 277,
      "Ġfor": 278,
      "ay": 279,
      "un": 280,
      "Ġ`": 281,
      "if": 282,
      "ch": 283,
      "ld": 284,
      "Ġon": 285,
      "od": 286,
      "ur": 287,
      "ig": 288,
      "ith": 289,
      "ĠS": 290,
      "ver": 291,
      "ĠA": 292,
      "\"\"": 293,
      "ation": 294,
      "ad": 295,
      "se": 296,
      "ate": 297,
      "um": 298,
      "Ġas": 299,
      "ĠThe": 300,
      "Ġwith": 301,
      "user": 302,
      "ir": 303,
      "Ġcon": 304,
      "Ġwh": 305,
      "ke": 306,
      "ul": 307,
      "ol": 308,
      "Ġhe": 309,
      "Ġcan": 310,
      "bot": 311,
      "ĠC": 312,
      "Ġor": 313,
      "out": 314,
      "est": 315,
      "il": 316,
      "Ġus": 317,
      "Ġare": 318,
      "th": 319,
      "ĠH": 320,
      "Ġwe": 321,
      "Ġpro": 322,
      "ers": 323,
      "qu": 324,
      "ge": 325,
      "ist": 326,
      "ĠW": 327,
      "Ġex": 328,
      "ri": 329,
      "ra": 330,
      "Ġthis": 331,
      "ab": 332,
      "Ġde": 333,
      "pe": 334,
      "her": 335,
      "Ġv": 336,
      "Ġha": 337,
      "Ġ1": 338,
      "Ġcom": 339,
      "ter": 340,
      "ment": 341,
      "ĠP": 342,
      "res": 343,
      "op": 344,
      "ess": 345,
      "Ġse": 346,
      "Ġ(": 347,
      "Ġdo": 348,
      "Ġne": 349,
      "rom": 350,
      "ck": 351,
      "Ġr": 352,
      "pp": 353,
      "ould": 354,
      "and": 355,
      "ill": 356,
      "``": 357,
      "ore": 358,
      "ction": 359,
      "Ġsu": 360,
      "nt": 361,
      "Ġ=": 362,
      "ant": 363,
      "ort": 364,
      "Ġnot": 365,
      "ĠM": 366,
      "ive": 367,
      "iv": 368,
      "ĠB": 369,
      "ain": 370,
      "ally": 371,
      "em": 372,
      "ht": 373,
      "Ġhave": 374,
      "Ġ-": 375,
      "Ġ\"\"": 376,
      "os": 377,
      "Ġfrom": 378,
      "ie": 379,
      "Ġby": 380,
      "Ġch": 381,
      "el": 382,
      "pt": 383,
      "end": 384,
      "Ġal": 385,
      "ere": 386,
      "Ġwas": 387,
      "Ġat": 388,
      "ĠF": 389,
      "pl": 390,
      "Ġme": 391,
      "Ġwor": 392,
      "ĠD": 393,
      "Ġab": 394,
      "Ġle": 395,
      "Ġ2": 396,
      "ome": 397,
      "nd": 398,
      "art": 399,
      "Ġar": 400,
      "'s": 401,
      "Ġsh": 402,
      "Ġyour": 403,
      "ust": 404,
      "ity": 405,
      "ies": 406,
      "ight": 407,
      "ine": 408,
      "Ġun": 409,
      "Ġj": 410,
      "Ġim": 411,
      "ame": 412,
      "Ġlo": 413,
      "ence": 414,
      "ak": 415,
      "ĠTh": 416,
      "ue": 417,
      "all": 418,
      "Ġbut": 419,
      "\\'": 420,
      "te": 421,
      "Ġk": 422,
      "Ġli": 423,
      "ple": 424,
      "ĠR": 425,
      "Ġ\"": 426,
      "ure": 427,
      "Ġif": 428,
      "iz": 429,
      "Ġmy": 430,
      "age": 431,
      "ide": 432,
      "ass": 433,
      "ich": 434,
      "ect": 435,
      "ĠE": 436,
      "act": 437,
      "ĠN": 438,
      "Ġqu": 439,
      "our": 440,
      "ci": 441,
      "Ġthey": 442,
      "Ġwhe": 443,
      "Ġfun": 444,
      "Ġso": 445,
      "ud": 446,
      "Ġen": 447,
      "ult": 448,
      "ind": 449,
      "Ġgo": 450,
      "per": 451,
      "ĠO": 452,
      "able": 453,
      "int": 454,
      "ok": 455,
      "Ġpl": 456,
      "Ġtr": 457,
      "Ġint": 458,
      "ĠY": 459,
      "ther": 460,
      "yth": 461,
      "Ġwill": 462,
      "Ġcl": 463,
      "ĠIn": 464,
      "up": 465,
      "one": 466,
      "ake": 467,
      "ĠG": 468,
      "Ġfo": 469,
      "orm": 470,
      "ile": 471,
      "Ġlike": 472,
      "Ġall": 473,
      "ost": 474,
      "ode": 475,
      "Ġout": 476,
      "Ġad": 477,
      "ag": 478,
      "Ġres": 479,
      "ĠL": 480,
      "oug": 481,
      "Ġwhich": 482,
      "Ġfunction": 483,
      "are": 484,
      "ĠWh": 485,
      "ard": 486,
      "xt": 487,
      "Ġtheir": 488,
      "Ġabout": 489,
      "put": 490,
      "urn": 491,
      "Ġte": 492,
      "so": 493,
      "ase": 494,
      "cc": 495,
      "ire": 496,
      "ions": 497,
      "ime": 498,
      "ber": 499,
      "Ġsome": 500,
      "ated": 501,
      "ach": 502,
      "Ġpr": 503,
      "ack": 504,
      "ast": 505,
      "ound": 506,
      "Ġ'": 507,
      "ring": 508,
      "Ġ```": 509,
      "port": 510,
      "Ġnum": 511,
      ".\\": 512,
      "ice": 513,
      "ong": 514,
      "cl": 515,
      "'t": 516,
      "Ġuse": 517,
      "ary": 518,
      "Ġret": 519,
      "ĠIt": 520,
      "Ġusing": 521,
      "ython": 522,
      "ac": 523,
      "ep": 524,
      "Ġwould": 525,
      "ans": 526,
      "ĠJ": 527,
      "ĠThis": 528,
      "der": 529,
      "ff": 530,
      "Ġ3": 531,
      "ĠU": 532,
      "ous": 533,
      "Ġmore": 534,
      "Ġhas": 535,
      "Ġcont": 536,
      "Ġpre": 537,
      "ble": 538,
      "ĠHow": 539,
      "av": 540,
      "form": 541,
      "Ġup": 542,
      "Ġsent": 543,
      "00": 544,
      "Ġget": 545,
      "ough": 546,
      "Ġother": 547,
      "now": 548,
      "wer": 549,
      "Ġcode": 550,
      "Ġpe": 551,
      "Ġfe": 552,
      "Ġcre": 553,
      "Ġthem": 554,
      "Ġspe": 555,
      "og": 556,
      "Ġwork": 557,
      "ical": 558,
      "()": 559,
      "Ġreturn": 560,
      "ates": 561,
      "Ġdis": 562,
      "aus": 563,
      "Ġthere": 564,
      "ap": 565,
      "Ġcomp": 566,
      "Ġhis": 567,
      "ount": 568,
      "ata": 569,
      "Ġman": 570,
      "Ġone": 571,
      "eth": 572,
      "Ġany": 573,
      "ial": 574,
      "du": 575,
      "ance": 576,
      "ink": 577,
      "ite": 578,
      "Ġev": 579,
      "ople": 580,
      "Ġapp": 581,
      "Ġtw": 582,
      "ress": 583,
      "ry": 584,
      "ĠYou": 585,
      "led": 586,
      "Ġwhat": 587,
      "ace": 588,
      "Ġknow": 589,
      "ord": 590,
      "Ġwho": 591,
      "swer": 592,
      "ari": 593,
      "ear": 594,
      "irst": 595,
      "ign": 596,
      "llow": 597,
      "Ġwant": 598,
      "Ġbec": 599,
      "ations": 600,
      "ces": 601,
      "ip": 602,
      "ents": 603,
      "Ġquest": 604,
      "Ġco": 605,
      "Ġpeople": 606,
      "Ġgr": 607,
      "Ġlist": 608,
      "very": 609,
      "Ġalso": 610,
      "Ġval": 611,
      "Ġhow": 612,
      "Ġam": 613,
      "Ġtime": 614,
      "ific": 615,
      "ray": 616,
      "Ġneed": 617,
      "ject": 618,
      "Ġwhen": 619,
      "ub": 620,
      "fere": 621,
      "Ġele": 622,
      "ĠWhat": 623,
      "Ġinto": 624,
      "iven": 625,
      "Ġind": 626,
      "ru": 627,
      "ang": 628,
      "Ġjust": 629,
      "Ġprov": 630,
      "con": 631,
      "Ġover": 632,
      "Ġfollow": 633,
      "Ġdef": 634,
      "ĠIf": 635,
      "Ġper": 636,
      "ause": 637,
      "Ġmod": 638,
      "Ġ{": 639,
      "ition": 640,
      "ict": 641,
      "Ġpos": 642,
      "ose": 643,
      "Ġher": 644,
      "Ġits": 645,
      "Ġdes": 646,
      "ating": 647,
      ":\\": 648,
      "ater": 649,
      "Ġ<": 650,
      "Ġtwo": 651,
      "ne": 652,
      "Ġimport": 653,
      "Ġdif": 654,
      "ree": 655,
      "Ġhel": 656,
      "ener": 657,
      "ample": 658,
      "ays": 659,
      "Ġ```\\": 660,
      "Ġ}": 661,
      "Ġsp": 662,
      "ick": 663,
      "Ġ4": 664,
      "Ġsc": 665,
      "lo": 666,
      "Ġbet": 667,
      "ory": 668,
      "Ġnew": 669,
      "ise": 670,
      "Ġhelp": 671,
      "Ġpart": 672,
      "gr": 673,
      "ail": 674,
      "Ġem": 675,
      "Ġmake": 676,
      "Ġno": 677,
      "Ġsentence": 678,
      "Ġthan": 679,
      "Ġadd": 680,
      "hes": 681,
      "ens": 682,
      "Ġanswer": 683,
      "Ġacc": 684,
      "..": 685,
      "Ġfirst": 686,
      "Ġthen": 687,
      "Ġdoes": 688,
      "```": 689,
      "Ġcal": 690,
      "Ġ5": 691,
      "Ġcomm": 692,
      "ish": 693,
      "cess": 694,
      "we": 695,
      "Ġmo": 696,
      "vie": 697,
      "Ġquestion": 698,
      "ia": 699,
      "ings": 700,
      ").": 701,
      "Ġeach": 702,
      "ments": 703,
      "Ġsa": 704,
      "Ġgiven": 705,
      "Ġro": 706,
      "Ġshould": 707,
      "lf": 708,
      "ild": 709,
      "Ġnumber": 710,
      "ors": 711,
      "Ġrec": 712,
      "Ġdata": 713,
      "clud": 714,
      "Ġspec": 715,
      "Ġke": 716,
      "Ġact": 717,
      "vel": 718,
      "Ġyear": 719,
      "Ġcould": 720,
      "erm": 721,
      "ased": 722,
      "fter": 723,
      "own": 724,
      ".\"\"": 725,
      "ange": 726,
      "ize": 727,
      "Ġexample": 728,
      "Ġclass": 729,
      "Ġdiffere": 730,
      "Ġoff": 731,
      "Ġdon": 732,
      "Ġhad": 733,
      "les": 734,
      "Ġthink": 735,
      "get": 736,
      "Ġstring": 737,
      "Ġcol": 738,
      "Ġset": 739,
      "Ġsub": 740,
      "Ġthese": 741,
      "lic": 742,
      "Ġbeen": 743,
      "Ġph": 744,
      "ting": 745,
      "Ġpo": 746,
      "oth": 747,
      "Ġinst": 748,
      "ax": 749,
      "Ġbo": 750,
      "vers": 751,
      "Ġvari": 752,
      "ĠSt": 753,
      "yp": 754,
      "Ġtra": 755,
      "'m": 756,
      "Ġcons": 757,
      "cri": 758,
      "si": 759,
      "Ġwere": 760,
      "Ġunder": 761,
      "Ġarray": 762,
      "Ġag": 763,
      "Ġbecause": 764,
      "Ġthr": 765,
      "Ġser": 766,
      "Ġstate": 767,
      "Ġob": 768,
      "python": 769,
      "ĠAn": 770,
      "erson": 771,
      "Ġfind": 772,
      "Ġgener": 773,
      "Ġfollowing": 774,
      "ual": 775,
      "Ġshe": 776,
      "ĠK": 777,
      "Ġi": 778,
      "ative": 779,
      "ful": 780,
      "Ġmost": 781,
      "Ġchar": 782,
      "Ġche": 783,
      "ph": 784,
      "Ġ0": 785,
      "Ġrel": 786,
      "Ġused": 787,
      "aking": 788,
      "rit": 789,
      "Ġresult": 790,
      "Ġword": 791,
      "nT": 792,
      "Ġwhere": 793,
      "ning": 794,
      "Ġway": 795,
      "ify": 796,
      "akes": 797,
      "Ġinform": 798,
      "Ġform": 799,
      "Ġprint": 800,
      "igh": 801,
      "ethod": 802,
      "ys": 803,
      "ath": 804,
      "ert": 805,
      "ex": 806,
      "ĠPython": 807,
      ");": 808,
      "red": 809,
      "pon": 810,
      "ues": 811,
      "Ġcreate": 812,
      "ĠHe": 813,
      "ĠSte": 814,
      "Ġmethod": 815,
      "ob": 816,
      "Ġonly": 817,
      "ark": 818,
      "ĠCh": 819,
      "Ġthrough": 820,
      "ĠWe": 821,
      "Ġsy": 822,
      "Ġsuch": 823,
      "Ġcur": 824,
      "Ġgood": 825,
      "fore": 826,
      "Ġinformation": 827,
      "In": 828,
      "',": 829,
      "ĠRe": 830,
      "pect": 831,
      "gg": 832,
      "Ġstart": 833,
      "hen": 834,
      "Ġinclud": 835,
      "Ġcor": 836,
      "Ġbeing": 837,
      "Ġatt": 838,
      "Ġrem": 839,
      "ĠHere": 840,
      "Ġdid": 841,
      "ade": 842,
      "ĠStep": 843,
      "):": 844,
      "ving": 845,
      "Ġprodu": 846,
      "ular": 847,
      "bers": 848,
      "Ġinter": 849,
      "),": 850,
      "cre": 851,
      "li": 852,
      "Ġbu": 853,
      "Ġsim": 854,
      "ask": 855,
      "ft": 856,
      "Ġmay": 857,
      "Ġ19": 858,
      "rent": 859,
      "ually": 860,
      "Ġfl": 861,
      "ween": 862,
      "Ġdifferent": 863,
      "Ġent": 864,
      "ĠV": 865,
      "Ġperson": 866,
      "Ġprovid": 867,
      "Ġwhile": 868,
      "Ġback": 869,
      "Ġdet": 870,
      "Ġsee": 871,
      "Ġpass": 872,
      "Ġbetween": 873,
      "Ġrequ": 874,
      "Ġinput": 875,
      "Ġtry": 876,
      "Ġhim": 877,
      "Ġsm": 878,
      "reat": 879,
      "Ġlook": 880,
      "ĠCan": 881,
      "Ġvalue": 882,
      "ution": 883,
      "Ġafter": 884,
      "Ġ+": 885,
      "Ġeven": 886,
      "Ġsol": 887,
      "arch": 888,
      "oc": 889,
      "oy": 890,
      "text": 891,
      "cial": 892,
      "Ġsame": 893,
      "ty": 894,
      "ason": 895,
      "other": 896,
      "ics": 897,
      "Ġvery": 898,
      "uch": 899,
      "ng": 900,
      "Ġsom": 901,
      "Ġcount": 902,
      "ems": 903,
      "Ġinv": 904,
      "Ġpar": 905,
      "Ġcharact": 906,
      "ious": 907,
      "read": 908,
      "eng": 909,
      "ower": 910,
      "ian": 911,
      "self": 912,
      "Ġeff": 913,
      "Ġimp": 914,
      "ife": 915,
      "gram": 916,
      "uring": 917,
      "Ġopt": 918,
      "Ġass": 919,
      "ten": 920,
      "ever": 921,
      "__": 922,
      "Ġspecific": 923,
      "Ġlet": 924,
      "ved": 925,
      "Ġcar": 926,
      "Ġlong": 927,
      "Ġmat": 928,
      "Ġname": 929,
      "ows": 930,
      "Ġwell": 931,
      "Ġ[": 932,
      "wn": 933,
      "Ġboth": 934,
      "Ġra": 935,
      "Ġend": 936,
      "Ġfil": 937,
      "ures": 938,
      "Ġuser": 939,
      "ically": 940,
      "Ġmany": 941,
      "ĠIs": 942,
      "Ġexper": 943,
      "Ġcall": 944,
      "ied": 945,
      "ities": 946,
      "Ġ/": 947,
      "ract": 948,
      "Ġmodel": 949,
      "`,": 950,
      "ves": 951,
      "ident": 952,
      "Ġreg": 953,
      "com": 954,
      "ily": 955,
      "Ġmuch": 956,
      "ove": 957,
      "Ġrep": 958,
      "mer": 959,
      "Ġprogram": 960,
      "Ġmight": 961,
      "Ġstud": 962,
      "hed": 963,
      "Ġreally": 964,
      "ks": 965,
      "Ġ#": 966,
      "enc": 967,
      "stand": 968,
      "Ġ20": 969,
      "als": 970,
      "ĠAs": 971,
      "Ġtrans": 972,
      "view": 973,
      "Ġ6": 974,
      "Ġac": 975,
      "Ġyears": 976,
      "its": 977,
      "`.": 978,
      "ĠSo": 979,
      "ĠTo": 980,
      "Ġprocess": 981,
      "nIn": 982,
      "Ġhand": 983,
      "sible": 984,
      "cept": 985,
      "Ġour": 986,
      "Ġcalled": 987,
      "Ġfeel": 988,
      "Ġplay": 989,
      "cul": 990,
      "Ġexp": 991,
      "Ġsupp": 992,
      "Ġmain": 993,
      "Ġread": 994,
      "Ġcurrent": 995,
      "ieve": 996,
      "ered": 997,
      "Ġmean": 998,
      "Ġdec": 999,
      "be": 1000,
      "Ġdown": 1001,
      "nce": 1002,
      "Ġhigh": 1003,
      "Ġsay": 1004,
      "Ġext": 1005,
      "Ġloc": 1006,
      "Ġgu": 1007,
      "ething": 1008,
      "irect": 1009,
      "Ġrun": 1010,
      "ef": 1011,
      "ĠFor": 1012,
      "Ġconst": 1013,
      "ĠThere": 1014,
      "ense": 1015,
      "Ġright": 1016,
      "Ġart": 1017,
      "Ġtext": 1018,
      "Ġmin": 1019,
      "Ġbl": 1020,
      "ince": 1021,
      "ility": 1022,
      "cript": 1023,
      "Ġbr": 1024,
      "Ġbel": 1025,
      "ug": 1026,
      "Ġobject": 1027,
      "Ġpoint": 1028,
      "Ġsaid": 1029,
      "ib": 1030,
      "ield": 1031,
      "riend": 1032,
      "old": 1033,
      "Ġtake": 1034,
      "ery": 1035,
      "iss": 1036,
      "itive": 1037,
      "side": 1038,
      "arn": 1039,
      "olog": 1040,
      "ars": 1041,
      "Ġsum": 1042,
      "Ġelement": 1043,
      "inal": 1044,
      "inally": 1045,
      "Ġ.": 1046,
      "ĠThey": 1047,
      "resent": 1048,
      "Ġsomething": 1049,
      "Ġstep": 1050,
      "Ġeng": 1051,
      "ines": 1052,
      "lect": 1053,
      "Ġbefore": 1054,
      "ool": 1055,
      "oup": 1056,
      "Ġevery": 1057,
      "ather": 1058,
      "Ġcheck": 1059,
      "Ġfound": 1060,
      "cond": 1061,
      "ody": 1062,
      "Ġref": 1063,
      "Ġ10": 1064,
      "Ġla": 1065,
      "but": 1066,
      "ype": 1067,
      "--": 1068,
      "Ġpol": 1069,
      "blem": 1070,
      "rect": 1071,
      "Ġfact": 1072,
      "cus": 1073,
      "ren": 1074,
      "word": 1075,
      "\",": 1076,
      "Ġel": 1077,
      "Ġexpl": 1078,
      "ention": 1079,
      "Ġcase": 1080,
      "Ġstr": 1081,
      "pr": 1082,
      "Ġwater": 1083,
      "alk": 1084,
      "ec": 1085,
      "day": 1086,
      "Ġsign": 1087,
      "Ġunderstand": 1088,
      "ited": 1089,
      "Ġnumbers": 1090,
      "Ġnow": 1091,
      "ĠBut": 1092,
      "ix": 1093,
      "ĠDo": 1094,
      "ruct": 1095,
      "ired": 1096,
      "ices": 1097,
      "Ġlar": 1098,
      "ward": 1099,
      "Ġarg": 1100,
      "arr": 1101,
      "ell": 1102,
      "ustom": 1103,
      "Ġprovide": 1104,
      "()`": 1105,
      "ĠCon": 1106,
      "Ġexperi": 1107,
      "Ġcomple": 1108,
      "Ġdep": 1109,
      "Ġbased": 1110,
      "Ġhapp": 1111,
      "stem": 1112,
      "ublic": 1113,
      "Ġproblem": 1114,
      "Ġtell": 1115,
      "ĠMy": 1116,
      "br": 1117,
      "Ġsk": 1118,
      "Ġkey": 1119,
      "Ġhum": 1120,
      "Ġthings": 1121,
      "ument": 1122,
      "ĠIm": 1123,
      "any": 1124,
      "Ġequ": 1125,
      "num": 1126,
      "Ġfam": 1127,
      "'re": 1128,
      "rop": 1129,
      "Ġreason": 1130,
      "ĠUn": 1131,
      "app": 1132,
      "ized": 1133,
      "name": 1134,
      "The": 1135,
      "ature": 1136,
      "Ġrespon": 1137,
      "Ġtakes": 1138,
      "Ġlot": 1139,
      "ork": 1140,
      "('": 1141,
      "Ġbest": 1142,
      "ctions": 1143,
      "imes": 1144,
      "Ġask": 1145,
      "ertain": 1146,
      "Ġown": 1147,
      "Ġperform": 1148,
      "alth": 1149,
      "Ġdirect": 1150,
      "ave": 1151,
      "othes": 1152,
      "ash": 1153,
      "ering": 1154,
      "val": 1155,
      "ences": 1156,
      "ven": 1157,
      "ced": 1158,
      "hip": 1159,
      "Ġtask": 1160,
      "air": 1161,
      "Ġmade": 1162,
      "Ġwr": 1163,
      "Ġday": 1164,
      "Ġcle": 1165,
      "Ġpop": 1166,
      "dd": 1167,
      "ient": 1168,
      "ought": 1169,
      "lease": 1170,
      "Ġgoing": 1171,
      "Ġagain": 1172,
      "ern": 1173,
      "Ġlife": 1174,
      "ything": 1175,
      "err": 1176,
      "ĠQ": 1177,
      "Ġjob": 1178,
      "ength": 1179,
      "Ġfood": 1180,
      "tle": 1181,
      "ages": 1182,
      "Ġconsid": 1183,
      "Ġhere": 1184,
      "Ġsure": 1185,
      "Ġstore": 1186,
      "ood": 1187,
      "Ġstatement": 1188,
      "Ġop": 1189,
      "ĠHowever": 1190,
      "Ġcontain": 1191,
      "Ġcare": 1192,
      "ĠAl": 1193,
      "Ġproduct": 1194,
      "Ġsur": 1195,
      "ote": 1196,
      "Ġstill": 1197,
      "tern": 1198,
      "Ġchild": 1199,
      "Ġloop": 1200,
      "Ġwords": 1201,
      ",\"\"": 1202,
      "Ġ7": 1203,
      "Ġide": 1204,
      "'ve": 1205,
      "Ġtest": 1206,
      "Ġaut": 1207,
      "ism": 1208,
      "Ġmed": 1209,
      "Ġadv": 1210,
      "Ġwithout": 1211,
      "Ġworld": 1212,
      "mise": 1213,
      "andom": 1214,
      "??": 1215,
      "Ġsit": 1216,
      "...": 1217,
      "ĠNe": 1218,
      "Ġinf": 1219,
      "Ġiss": 1220,
      "Ġ8": 1221,
      "Ġap": 1222,
      "Ġ\\": 1223,
      "Ġaround": 1224,
      "Ġsort": 1225,
      "Ġbre": 1226,
      "ins": 1227,
      "ural": 1228,
      "erg": 1229,
      "ron": 1230,
      "way": 1231,
      "Ġsecond": 1232,
      "Ġkeep": 1233,
      "Ġprovided": 1234,
      "Ġpossible": 1235,
      "Ġach": 1236,
      "ypothes": 1237,
      "Ġsomeone": 1238,
      "gor": 1239,
      "Ġcontext": 1240,
      "Ġreturns": 1241,
      "Ġcalcul": 1242,
      "ouse": 1243,
      "Ġelements": 1244,
      "Ġsmall": 1245,
      "Ġoutput": 1246,
      "ger": 1247,
      "ypothesis": 1248,
      "Ġmus": 1249,
      "Ġmon": 1250,
      "ational": 1251,
      "ĠAnd": 1252,
      "Ġcorrect": 1253,
      "gan": 1254,
      "Ġ*": 1255,
      "St": 1256,
      "Ġconf": 1257,
      "velop": 1258,
      "chool": 1259,
      "Ġtoo": 1260,
      "erest": 1261,
      "Ġtri": 1262,
      "Ġplace": 1263,
      "ives": 1264,
      "Ġfriend": 1265,
      "Ġbetter": 1266,
      "Ġduring": 1267,
      "Ġwhy": 1268,
      "ss": 1269,
      "Ġorder": 1270,
      "Ġlast": 1271,
      "umn": 1272,
      "Ġterm": 1273,
      "Ġcommon": 1274,
      "Ġold": 1275,
      "meric": 1276,
      "bo": 1277,
      "Ġdist": 1278,
      "ts": 1279,
      "omm": 1280,
      "Ġbook": 1281,
      "ator": 1282,
      "ank": 1283,
      "Ġcharacter": 1284,
      "Ġcustom": 1285,
      "Ġlit": 1286,
      "Ġiter": 1287,
      "Ġvariable": 1288,
      "ential": 1289,
      "ined": 1290,
      "Ġcr": 1291,
      "Ġthose": 1292,
      "Ġlead": 1293,
      "py": 1294,
      "ton": 1295,
      "Ġless": 1296,
      "ways": 1297,
      "ames": 1298,
      "ining": 1299,
      "Ġrest": 1300,
      "ivid": 1301,
      "Ġtype": 1302,
      "Ġsl": 1303,
      "Ġreview": 1304,
      "atch": 1305,
      "Ġmem": 1306,
      "Ġtop": 1307,
      "ets": 1308,
      "Ġve": 1309,
      "ĠThat": 1310,
      "itle": 1311,
      "Ġfile": 1312,
      "co": 1313,
      "Ġhome": 1314,
      "ted": 1315,
      "Ġgive": 1316,
      "ribut": 1317,
      ")\\": 1318,
      "Ġinterest": 1319,
      "Ġeffect": 1320,
      "ness": 1321,
      "Ġcho": 1322,
      "par": 1323,
      "string": 1324,
      "iqu": 1325,
      "his": 1326,
      "ases": 1327,
      "Ġmaking": 1328,
      "ull": 1329,
      "Ġfield": 1330,
      "ĠAmeric": 1331,
      "arm": 1332,
      "Ġsupport": 1333,
      "Ġ,": 1334,
      "to": 1335,
      "Ġoper": 1336,
      "ists": 1337,
      "ĠEx": 1338,
      "Ġdevelop": 1339,
      "Ġvalues": 1340,
      "raph": 1341,
      "Ġav": 1342,
      "ately": 1343,
      "ale": 1344,
      "Ġfew": 1345,
      "Ġinit": 1346,
      "iment": 1347,
      "Ġreal": 1348,
      "Ġins": 1349,
      "Ġtyp": 1350,
      "Ġsystem": 1351,
      "ified": 1352,
      "Ġtable": 1353,
      "iew": 1354,
      "Ġpositive": 1355,
      "Ġrange": 1356,
      "ĠWhen": 1357,
      "icle": 1358,
      "ner": 1359,
      "Ġpremise": 1360,
      "Ġoften": 1361,
      "ggest": 1362,
      "ier": 1363,
      "Ġinte": 1364,
      "oun": 1365,
      "ava": 1366,
      "ps": 1367,
      "Ġincre": 1368,
      "Ġneg": 1369,
      "Ġmult": 1370,
      "Ġeas": 1371,
      "Ġpot": 1372,
      "Ġgroup": 1373,
      "io": 1374,
      "iction": 1375,
      "Ġgot": 1376,
      "Ġhealth": 1377,
      "Ġtrue": 1378,
      "(\"": 1379,
      "Ġachieve": 1380,
      "Ġschool": 1381,
      "Ġengine": 1382,
      "Ġwithin": 1383,
      "ĠYes": 1384,
      "Ġtrying": 1385,
      "Ġhypothesis": 1386,
      "chn": 1387,
      "Ġdat": 1388,
      "ision": 1389,
      "Ġproper": 1390,
      "âĢ": 1391,
      "angu": 1392,
      "Ġgreat": 1393,
      "Ġ9": 1394,
      "ants": 1395,
      "line": 1396,
      "list": 1397,
      "str": 1398,
      "Ġshow": 1399,
      "ending": 1400,
      "uc": 1401,
      "Ġsince": 1402,
      "Ġmax": 1403,
      "Ġwom": 1404,
      "Ġpublic": 1405,
      "here": 1406,
      "Ġsuggest": 1407,
      "Ġwee": 1408,
      "Ġtem": 1409,
      "ric": 1410,
      "iron": 1411,
      "Ġcook": 1412,
      "Ġanother": 1413,
      "Ġpur": 1414,
      "Ġpartic": 1415,
      "Ġalways": 1416,
      "Ġimportant": 1417,
      "ared": 1418,
      "Ġline": 1419,
      "Ġinc": 1420,
      "Ġhist": 1421,
      "Ġelse": 1422,
      "Ġx": 1423,
      "Ġput": 1424,
      "arly": 1425,
      "Ġdesign": 1426,
      "ah": 1427,
      "oney": 1428,
      "Ġprof": 1429,
      "=\"": 1430,
      "Ġsolution": 1431,
      "Ġgre": 1432,
      "lish": 1433,
      "Ġfilm": 1434,
      "ead": 1435,
      "))": 1436,
      "Ġever": 1437,
      "land": 1438,
      "Ġwon": 1439,
      "Ġbuild": 1440,
      "Ġcolumn": 1441,
      "Ġhard": 1442,
      "Ġexperience": 1443,
      "ĠSe": 1444,
      "Ġunt": 1445,
      "Ġweb": 1446,
      "ety": 1447,
      "ute": 1448,
      "Ġmeans": 1449,
      "oid": 1450,
      "Ġhead": 1451,
      "ule": 1452,
      "Ġnext": 1453,
      "iled": 1454,
      "Ġorig": 1455,
      "Ġlangu": 1456,
      "Ġcompon": 1457,
      "ze": 1458,
      "Ġwrit": 1459,
      "ĠEng": 1460,
      "ible": 1461,
      "Ġinvol": 1462,
      "Ġ?": 1463,
      "Ġsing": 1464,
      "tain": 1465,
      "rain": 1466,
      "000": 1467,
      "ional": 1468,
      "mon": 1469,
      "Ġthree": 1470,
      "Ġself": 1471,
      "ithm": 1472,
      "amet": 1473,
      "Ġcontin": 1474,
      "ploy": 1475,
      "Ġplan": 1476,
      "ock": 1477,
      "iness": 1478,
      "nThe": 1479,
      "Ġvis": 1480,
      "me": 1481,
      "els": 1482,
      "iving": 1483,
      "pro": 1484,
      "aly": 1485,
      "by": 1486,
      "Ġtechn": 1487,
      "Ġchange": 1488,
      "Ġmess": 1489,
      "Ġdoesn": 1490,
      "Ġable": 1491,
      "Ġfamily": 1492,
      "Ġed": 1493,
      "orn": 1494,
      "ality": 1495,
      "Ġstand": 1496,
      "the": 1497,
      "Ġ201": 1498,
      "Ġdescri": 1499,
      "less": 1500,
      "Ġuntil": 1501,
      "Ġdispl": 1502,
      "ĠWhy": 1503,
      "Ġsal": 1504,
      "Ġpost": 1505,
      "Ġcond": 1506,
      "Ġprev": 1507,
      "ĠShe": 1508,
      "ser": 1509,
      "ĠTr": 1510,
      "Ġconc": 1511,
      "Ġmovie": 1512,
      "Ġhuman": 1513,
      "ital": 1514,
      "nThis": 1515,
      "ably": 1516,
      "Ġindic": 1517,
      "Ġcent": 1518,
      "Ġnever": 1519,
      "Ġkind": 1520,
      "Ġmention": 1521,
      "ccess": 1522,
      "Ġpower": 1523,
      "not": 1524,
      "Ġapplic": 1525,
      "vice": 1526,
      "Ġincluding": 1527,
      "</": 1528,
      "Ġ//": 1529,
      "Ġdri": 1530,
      "gorithm": 1531,
      "ency": 1532,
      "Ġthing": 1533,
      "Ġnegative": 1534,
      "ables": 1535,
      "Ġdi": 1536,
      "ons": 1537,
      "Ġbus": 1538,
      "Ġerr": 1539,
      "Ġmet": 1540,
      "Ġdeterm": 1541,
      "ĠThen": 1542,
      "Ġens": 1543,
      "Ġlarge": 1544,
      "Ġchang": 1545,
      "Ġbeh": 1546,
      "uation": 1547,
      "ĠAnswer": 1548,
      "ross": 1549,
      "ĠAr": 1550,
      "Ġactiv": 1551,
      "Ġleft": 1552,
      "viron": 1553,
      "Ġgenerate": 1554,
      "Ġexpress": 1555,
      "Ġindivid": 1556,
      "Ġenc": 1557,
      "Ġopen": 1558,
      "Ġcour": 1559,
      "Ġleg": 1560,
      "ively": 1561,
      "uck": 1562,
      "Ġocc": 1563,
      "Ġalgorithm": 1564,
      "Ġknown": 1565,
      "ats": 1566,
      "Ġinitial": 1567,
      "Ġpay": 1568,
      "Ġsubject": 1569,
      "ology": 1570,
      "Ġmoney": 1571,
      "oss": 1572,
      "search": 1573,
      "ĠCom": 1574,
      "Ġquestions": 1575,
      "man": 1576,
      "Ġnecess": 1577,
      "imum": 1578,
      "Ġlab": 1579,
      "arent": 1580,
      "Ġstruct": 1581,
      "Ġ==": 1582,
      "sh": 1583,
      "Ġcommun": 1584,
      "Ġcome": 1585,
      "for": 1586,
      "clus": 1587,
      "Ġhaving": 1588,
      "data": 1589,
      "nF": 1590,
      "Ġparamet": 1591,
      "Ġho": 1592,
      "Ġworking": 1593,
      "ique": 1594,
      "Ġblo": 1595,
      "Ġsense": 1596,
      "po": 1597,
      "urther": 1598,
      "Ġappe": 1599,
      "ding": 1600,
      "Ġlog": 1601,
      "tt": 1602,
      "atic": 1603,
      "Ġevent": 1604,
      "ee": 1605,
      "Ġarr": 1606,
      "Ġindividual": 1607,
      "Ġmark": 1608,
      "Ġdoing": 1609,
      "Ġident": 1610,
      "Ġdr": 1611,
      "Ġanim": 1612,
      "Ġcompany": 1613,
      "js": 1614,
      "Ġsearch": 1615,
      "Ġsci": 1616,
      "ĠId": 1617,
      "Ġmonth": 1618,
      "Ġarea": 1619,
      "Ġrandom": 1620,
      "Ġair": 1621,
      "work": 1622,
      "ird": 1623,
      "ĠNo": 1624,
      "ling": 1625,
      "aj": 1626,
      "ĠPro": 1627,
      "//": 1628,
      "entence": 1629,
      "Ġdue": 1630,
      "Ġ\\'": 1631,
      "Ġvarious": 1632,
      "Ġmulti": 1633,
      "Ġpres": 1634,
      "')": 1635,
      "Ġbody": 1636,
      "Ġlevel": 1637,
      ";\\": 1638,
      "Ġupd": 1639,
      "plement": 1640,
      "Ġanything": 1641,
      "requ": 1642,
      "ently": 1643,
      "Ġenviron": 1644,
      "ond": 1645,
      "ĠQu": 1646,
      "ailed": 1647,
      "Ġpred": 1648,
      "Ġcap": 1649,
      "ilar": 1650,
      "Ġlibr": 1651,
      "ĠPh": 1652,
      "Ġpat": 1653,
      "Ġaccess": 1654,
      "Ġquery": 1655,
      "Ġfree": 1656,
      "Ġcharacters": 1657,
      "ergy": 1658,
      "Ġgetting": 1659,
      "Ġsignific": 1660,
      "Ġes": 1661,
      "Ġbas": 1662,
      "Ġlight": 1663,
      "ext": 1664,
      "verse": 1665,
      "Ġlooking": 1666,
      "Ġview": 1667,
      "'ll": 1668,
      "Ġbreak": 1669,
      "arning": 1670,
      "Ġappro": 1671,
      "vern": 1672,
      "ĠSh": 1673,
      "vert": 1674,
      "Ġactually": 1675,
      "Ġlanguage": 1676,
      "Ġtalk": 1677,
      "Ġhour": 1678,
      "oh": 1679,
      "ĠJava": 1680,
      "Ġthought": 1681,
      "Ġrele": 1682,
      "rol": 1683,
      "Ġstre": 1684,
      "Ġallow": 1685,
      "itions": 1686,
      "my": 1687,
      "Ġlearn": 1688,
      "ries": 1689,
      "Ġlength": 1690,
      "Ġlaw": 1691,
      "amp": 1692,
      "Ġmove": 1693,
      "Ġdog": 1694,
      "osed": 1695,
      "Ġrequest": 1696,
      "Ġlittle": 1697,
      "Ġbig": 1698,
      "Ġturn": 1699,
      "Ġsuccess": 1700,
      "alse": 1701,
      "ĠBe": 1702,
      "Ġvers": 1703,
      "Ġagainst": 1704,
      "ization": 1705,
      "Ġhouse": 1706,
      "Ġ</": 1707,
      "Ġinclude": 1708,
      "Ġreci": 1709,
      "Ġsever": 1710,
      "ails": 1711,
      "20": 1712,
      "az": 1713,
      "Ġtot": 1714,
      "Ġdont": 1715,
      "Ġenough": 1716,
      "ĠThese": 1717,
      "Ġwhether": 1718,
      "Ġrepl": 1719,
      "\".": 1720,
      "Ġmakes": 1721,
      "Ġcomput": 1722,
      "ĠNew": 1723,
      "Ġjo": 1724,
      "ipp": 1725,
      "Ġuses": 1726,
      "Ġaff": 1727,
      "Ġrepresent": 1728,
      "Ġlay": 1729,
      "Ġpresent": 1730,
      "ĠFinally": 1731,
      "aring": 1732,
      "Ġseems": 1733,
      "Ġfocus": 1734,
      "Ġorgan": 1735,
      "Ġrecomm": 1736,
      "ump": 1737,
      "Ġlikely": 1738,
      "Ġ200": 1739,
      "Ġcity": 1740,
      "ances": 1741,
      "Ġelect": 1742,
      "Ġlove": 1743,
      "Ġimplement": 1744,
      "Ġtoget": 1745,
      "Ġmust": 1746,
      "Ġtogether": 1747,
      "ither": 1748,
      "aut": 1749,
      "Ġsimilar": 1750,
      "atures": 1751,
      "Ġindex": 1752,
      "apt": 1753,
      "Ġprob": 1754,
      "Ġcomb": 1755,
      "ware": 1756,
      "ivers": 1757,
      "Ġredu": 1758,
      "Ġphys": 1759,
      "set": 1760,
      "Ġargument": 1761,
      "Ġidea": 1762,
      "Ġsentiment": 1763,
      "Ġseveral": 1764,
      "fe": 1765,
      "Ġweek": 1766,
      "Ġmusic": 1767,
      "Ġsentences": 1768,
      "ape": 1769,
      "ĠAdd": 1770,
      "Ġimpro": 1771,
      "uff": 1772,
      "Ġhappen": 1773,
      "Ġrecommend": 1774,
      "Ġprom": 1775,
      "ready": 1776,
      "Ġenergy": 1777,
      "ml": 1778,
      "Ġstory": 1779,
      "ially": 1780,
      "mit": 1781,
      "Ġpri": 1782,
      "],": 1783,
      "Ġexpect": 1784,
      "Ġenvironment": 1785,
      "Ġcountry": 1786,
      "aces": 1787,
      "ĠUS": 1788,
      "Ġsound": 1789,
      "Ġfin": 1790,
      "Ġsignificant": 1791,
      "âĢĻ": 1792,
      "wh": 1793,
      "anc": 1794,
      "Ġmil": 1795,
      "Ġarticle": 1796,
      "Ġremain": 1797,
      "Ġbad": 1798,
      "Ġoptions": 1799,
      "Ġcost": 1800,
      "Ġabove": 1801,
      "itional": 1802,
      "Ġproject": 1803,
      "Ġcertain": 1804,
      "Ġalready": 1805,
      "Ġothers": 1806,
      "Ġsw": 1807,
      "hor": 1808,
      "Ġmeaning": 1809,
      "Ġet": 1810,
      "ĠOne": 1811,
      "Ġest": 1812,
      "Ġsn": 1813,
      "':": 1814,
      "Ġdone": 1815,
      "ĠSentence": 1816,
      "Ġside": 1817,
      "Ġtimes": 1818,
      "Ġsteps": 1819,
      "Ġ=>": 1820,
      "Ġcult": 1821,
      "tr": 1822,
      "Ġaction": 1823,
      "'d": 1824,
      "Ġaway": 1825,
      "Ġamount": 1826,
      "ids": 1827,
      "Ġcomplete": 1828,
      "Ġdisplay": 1829,
      "of": 1830,
      "rame": 1831,
      "Ġrecord": 1832,
      "ctor": 1833,
      "Ġrequire": 1834,
      "ides": 1835,
      "ior": 1836,
      "idd": 1837,
      "ams": 1838,
      "Ġopp": 1839,
      "estion": 1840,
      "Ġsize": 1841,
      "aur": 1842,
      "Ġoriginal": 1843,
      "Ġbit": 1844,
      "Ġ18": 1845,
      "Ġissue": 1846,
      "gin": 1847,
      "med": 1848,
      "Ġrelations": 1849,
      "ination": 1850,
      "Ġresearch": 1851,
      "ĠReact": 1852,
      "Ġfurther": 1853,
      "Ġpa": 1854,
      "verage": 1855,
      "Ġsocial": 1856,
      "Ġsour": 1857,
      "ĠAmerican": 1858,
      "Ġgovern": 1859,
      "pre": 1860,
      "ĠUnited": 1861,
      "10": 1862,
      "ML": 1863,
      "ush": 1864,
      "sole": 1865,
      "Ġmessage": 1866,
      "ished": 1867,
      "print": 1868,
      "Ġcontent": 1869,
      "Ġsty": 1870,
      "Ġgrow": 1871,
      "Ġresponse": 1872,
      "Ġcolle": 1873,
      "ĠAfter": 1874,
      "aim": 1875,
      "Ġapplication": 1876,
      "ĠOr": 1877,
      "ajor": 1878,
      "lu": 1879,
      "ĠDe": 1880,
      "Ġtotal": 1881,
      "Ġwrite": 1882,
      "Ġaddress": 1883,
      "Ġshort": 1884,
      "min": 1885,
      "ends": 1886,
      "Ġhold": 1887,
      "Ġexec": 1888,
      "Ġcaus": 1889,
      "ived": 1890,
      "Ġhig": 1891,
      "ohn": 1892,
      "Ġgame": 1893,
      "Ġprofess": 1894,
      "Ġcrit": 1895,
      "Ġstructure": 1896,
      "Ġtitle": 1897,
      "Ġgrad": 1898,
      "ĠSure": 1899,
      "cuss": 1900,
      "ĠHT": 1901,
      "ember": 1902,
      "Ġnecessary": 1903,
      "QL": 1904,
      "Ġ12": 1905,
      "Ġ}\\": 1906,
      "mat": 1907,
      "rie": 1908,
      "urs": 1909,
      "Ġpast": 1910,
      "sc": 1911,
      "Ġdefine": 1912,
      "Ġerror": 1913,
      "Ġpain": 1914,
      "Ġrece": 1915,
      "ateg": 1916,
      "arget": 1917,
      "ĠNow": 1918,
      "Ġinstall": 1919,
      "Ġdoc": 1920,
      "By": 1921,
      "Ġdiff": 1922,
      "plic": 1923,
      "ĠAI": 1924,
      "Ġdiv": 1925,
      "wards": 1926,
      "Ġdays": 1927,
      "ĠCl": 1928,
      "izes": 1929,
      "Ġpret": 1930,
      "Ġpolit": 1931,
      "let": 1932,
      "Ġparticular": 1933,
      "Ġleast": 1934,
      "ability": 1935,
      "Ġetc": 1936,
      "Ġstates": 1937,
      "Ġage": 1938,
      "\"\".": 1939,
      "yn": 1940,
      "Ġchildren": 1941,
      "Ġlearning": 1942,
      "ral": 1943,
      "Ġintern": 1944,
      "Ġposition": 1945,
      "Ġsuper": 1946,
      "ĠSp": 1947,
      "Ġdescrib": 1948,
      "Ġstop": 1949,
      "ulation": 1950,
      "avor": 1951,
      "Ġtold": 1952,
      "Ġrelationship": 1953,
      "\"\",": 1954,
      "Ġ&": 1955,
      "Ġsingle": 1956,
      "Ġbusiness": 1957,
      "Ġz": 1958,
      "outh": 1959,
      "cle": 1960,
      "Ġnon": 1961,
      "Ġfriends": 1962,
      "Ġprot": 1963,
      "aw": 1964,
      "acy": 1965,
      "Ġaccur": 1966,
      "Ġemploy": 1967,
      "Ġstrong": 1968,
      "ER": 1969,
      "Ġreport": 1970,
      "Ġsituation": 1971,
      "light": 1972,
      "://": 1973,
      "Ġpract": 1974,
      "ele": 1975,
      "ches": 1976,
      "icult": 1977,
      "']": 1978,
      "amed": 1979,
      "Ġland": 1980,
      "clusion": 1981,
      "Ġpopular": 1982,
      "Ġyes": 1983,
      "uments": 1984,
      "Ġgl": 1985,
      "**": 1986,
      "orld": 1987,
      "Ġlive": 1988,
      "inary": 1989,
      "ĠInd": 1990,
      "ording": 1991,
      "Ġmajor": 1992,
      "ault": 1993,
      "Ġess": 1994,
      "ik": 1995,
      "ĠLet": 1996,
      "Ġthough": 1997,
      "Ġusually": 1998,
      "atural": 1999,
      "Ġmar": 2000,
      "ĠWhile": 2001,
      "test": 2002,
      "add": 2003,
      "Ġhistory": 2004,
      "Ġlim": 2005,
      "Ġscri": 2006,
      "oph": 2007,
      "ĠSome": 2008,
      "Ġbelieve": 2009,
      "mod": 2010,
      "Ġexplain": 2011,
      "Ġcell": 2012,
      "Ġmiss": 2013,
      "Ġscript": 2014,
      "ples": 2015,
      "ills": 2016,
      "Ġdidn": 2017,
      "Ġbecome": 2018,
      "Ġeither": 2019,
      "Ġseem": 2020,
      "Ġdetermine": 2021,
      "Ġgeneral": 2022,
      "ĠEnglish": 2023,
      "joy": 2024,
      "Ġbuy": 2025,
      "duct": 2026,
      "Ġprim": 2027,
      "Ġexist": 2028,
      "Ġ15": 2029,
      "Ġdiction": 2030,
      "Ġcontrol": 2031,
      "respon": 2032,
      "icient": 2033,
      "nTo": 2034,
      "Ġconsider": 2035,
      "cially": 2036,
      "Ġbro": 2037,
      "most": 2038,
      "Ġphr": 2039,
      "Ġparent": 2040,
      "arth": 2041,
      "ane": 2042,
      "ĠAre": 2043,
      "Ġcommand": 2044,
      "Ġspace": 2045,
      "Ġanyone": 2046,
      "fully": 2047,
      "aug": 2048,
      "Ġpack": 2049,
      "Ġyoung": 2050,
      "Ġrunning": 2051,
      ".\"": 2052,
      "Ġitem": 2053,
      "Ġoptim": 2054,
      "und": 2055,
      "Ġinstead": 2056,
      "Ġben": 2057,
      "Ġgen": 2058,
      "Ġsepar": 2059,
      "abase": 2060,
      "nect": 2061,
      "Ġcalculate": 2062,
      "new": 2063,
      "Ġ$": 2064,
      "Ġvalid": 2065,
      "Ġmen": 2066,
      "ĠOn": 2067,
      "Ġ(`": 2068,
      "ait": 2069,
      "Ġdiscuss": 2070,
      "Ġworks": 2071,
      "ĠX": 2072,
      "----": 2073,
      "ĠFr": 2074,
      "Ġfar": 2075,
      "Ġstudents": 2076,
      "sum": 2077,
      "ĠStates": 2078,
      "Ġunique": 2079,
      "Ġpretty": 2080,
      "nH": 2081,
      "aries": 2082,
      "plit": 2083,
      "ĠIdent": 2084,
      "Ġlow": 2085,
      "Ġresults": 2086,
      "Ġinstance": 2087,
      "Ġprobably": 2088,
      "Ġpersonal": 2089,
      "ĠQuestion": 2090,
      "aster": 2091,
      "Ġtaking": 2092,
      "Ġrelated": 2093,
      "Ġissues": 2094,
      "ĠBy": 2095,
      "clude": 2096,
      "Ġ--": 2097,
      "Ġcustomer": 2098,
      "Ġoption": 2099,
      "max": 2100,
      "input": 2101,
      "Ġalong": 2102,
      "Ġnight": 2103,
      "ply": 2104,
      "ĠCre": 2105,
      "Ġment": 2106,
      "ON": 2107,
      "Ġfive": 2108,
      "action": 2109,
      "soci": 2110,
      "raw": 2111,
      "conom": 2112,
      "Ġsimple": 2113,
      "cur": 2114,
      "Ġteam": 2115,
      "Ġenjoy": 2116,
      "Ġlocal": 2117,
      "Ġ100": 2118,
      "ium": 2119,
      "Ġgir": 2120,
      "izing": 2121,
      "Ġred": 2122,
      "Ġlibrary": 2123,
      "Ġcontains": 2124,
      "resents": 2125,
      "ĠWith": 2126,
      "Ġhours": 2127,
      "Ġclaim": 2128,
      "Ġselect": 2129,
      "Ġimpact": 2130,
      "ont": 2131,
      "lling": 2132,
      "uro": 2133,
      "Ġmodule": 2134,
      "Ġpage": 2135,
      "Ġdate": 2136,
      "ĠIdentify": 2137,
      "ming": 2138,
      "Ġlater": 2139,
      "Ġdefin": 2140,
      "Ġwoman": 2141,
      "hing": 2142,
      "ĠFirst": 2143,
      "ories": 2144,
      "Ġrepresents": 2145,
      "ĠOpt": 2146,
      "Ġver": 2147,
      "Ġcannot": 2148,
      "ules": 2149,
      "pos": 2150,
      "You": 2151,
      "Ġabs": 2152,
      "Ġretrie": 2153,
      "back": 2154,
      "Ġcomponent": 2155,
      "head": 2156,
      "Ġris": 2157,
      "Ġtre": 2158,
      "ailable": 2159,
      "Ġmultiple": 2160,
      "Ġoffic": 2161,
      "ball": 2162,
      "ification": 2163,
      "Ġstrings": 2164,
      "ĠGiven": 2165,
      "ĠHTML": 2166,
      "ĠLe": 2167,
      "Ġneeds": 2168,
      "body": 2169,
      "rist": 2170,
      "nFinally": 2171,
      "Ġdirectly": 2172,
      "Ġlocation": 2173,
      "Ġdifference": 2174,
      "Ġfull": 2175,
      "Ġmentioned": 2176,
      "gest": 2177,
      "ĠBased": 2178,
      "Ġmom": 2179,
      "pty": 2180,
      "Ġclean": 2181,
      "ĠPl": 2182,
      "utes": 2183,
      "Ġrespect": 2184,
      "ĠUs": 2185,
      "Ġseen": 2186,
      "ribute": 2187,
      "Ġpath": 2188,
      "sel": 2189,
      "orth": 2190,
      "Ġgovernment": 2191,
      "key": 2192,
      "osp": 2193,
      "wise": 2194,
      "log": 2195,
      "Ġpotential": 2196,
      "use": 2197,
      "['": 2198,
      "ĠAt": 2199,
      "fort": 2200,
      "Ġdictionary": 2201,
      "Ġconsidered": 2202,
      "Ġrole": 2203,
      "Ġtemper": 2204,
      "Ġquick": 2205,
      "Ġrather": 2206,
      "Ġallows": 2207,
      "ney": 2208,
      "Ġitems": 2209,
      "por": 2210,
      "ones": 2211,
      "ison": 2212,
      "Ġpie": 2213,
      "Ġdesired": 2214,
      "Ġmind": 2215,
      "Ġversion": 2216,
      "ann": 2217,
      "result": 2218,
      "Ġprovides": 2219,
      "Ġinvest": 2220,
      "ters": 2221,
      ".,": 2222,
      "cing": 2223,
      "pper": 2224,
      "ilos": 2225,
      "Ġclear": 2226,
      "Ġcolor": 2227,
      "Ġtraining": 2228,
      "ients": 2229,
      "array": 2230,
      "ww": 2231,
      "sw": 2232,
      "ler": 2233,
      "ĠInput": 2234,
      "Ġassist": 2235,
      "Ġsimply": 2236,
      "ĠIts": 2237,
      "Ġspecial": 2238,
      "ised": 2239,
      "time": 2240,
      "++": 2241,
      "Script": 2242,
      "Ġentire": 2243,
      "no": 2244,
      "Ġmeet": 2245,
      "Ġisn": 2246,
      "aterial": 2247,
      "Ġwent": 2248,
      "String": 2249,
      "Ġsong": 2250,
      "Ġdatabase": 2251,
      "Ġlower": 2252,
      "PI": 2253,
      "alyze": 2254,
      "sib": 2255,
      "gress": 2256,
      "igure": 2257,
      "Ġindust": 2258,
      "Ġsays": 2259,
      "ots": 2260,
      "Ġpredict": 2261,
      "ese": 2262,
      "ference": 2263,
      "Ġmaximum": 2264,
      "Ġonce": 2265,
      "Ġoverall": 2266,
      "Ġnorm": 2267,
      "Ġemail": 2268,
      "adem": 2269,
      "aps": 2270,
      "Ġrestaur": 2271,
      "Ġstarted": 2272,
      "Ġtarget": 2273,
      "fer": 2274,
      "ground": 2275,
      "Ġemot": 2276,
      "Ġwrong": 2277,
      "bal": 2278,
      "Ġequal": 2279,
      "Ġchanges": 2280,
      "Ġnet": 2281,
      "asing": 2282,
      "Ġnatural": 2283,
      "Ġcomplex": 2284,
      "count": 2285,
      "ounter": 2286,
      "Ġpress": 2287,
      "Ġste": 2288,
      "Ġroom": 2289,
      "ook": 2290,
      "Ġwalk": 2291,
      "ST": 2292,
      "Ġcourse": 2293,
      "ury": 2294,
      "Ġmach": 2295,
      "col": 2296,
      "div": 2297,
      "Ġmor": 2298,
      "Ġcut": 2299,
      "Ġ>": 2300,
      "Ġdifficult": 2301,
      "pecially": 2302,
      "Ġsumm": 2303,
      "html": 2304,
      "Ġcou": 2305,
      "ina": 2306,
      "Ġformat": 2307,
      "Ġstay": 2308,
      "Ġways": 2309,
      "Ġhope": 2310,
      "ropri": 2311,
      "nces": 2312,
      "Ġfore": 2313,
      "Ġlink": 2314,
      "Ġcause": 2315,
      "Ġauthor": 2316,
      "row": 2317,
      "ĠPlease": 2318,
      "iod": 2319,
      "Ġensure": 2320,
      "Ġseries": 2321,
      "Ġsym": 2322,
      "Ġconsole": 2323,
      "ender": 2324,
      "Ġeat": 2325,
      "irt": 2326,
      "alf": 2327,
      "Ġpoints": 2328,
      "ror": 2329,
      "nder": 2330,
      "Ġfeatures": 2331,
      "Ġdig": 2332,
      "dit": 2333,
      "nHere": 2334,
      "Ġplease": 2335,
      "Ġperformance": 2336,
      "Ġhandle": 2337,
      "ĠUse": 2338,
      "Ġregular": 2339,
      "ogn": 2340,
      "ouble": 2341,
      "\")": 2342,
      "='": 2343,
      "vant": 2344,
      "leep": 2345,
      "Ġterms": 2346,
      "Ġfour": 2347,
      "Ġprice": 2348,
      "illion": 2349,
      "Ġwin": 2350,
      "Ġaverage": 2351,
      "Ġdeal": 2352,
      "Ġempty": 2353,
      "gs": 2354,
      "Ġwind": 2355,
      "iversity": 2356,
      "ires": 2357,
      "Ġavoid": 2358,
      "Ġyoure": 2359,
      "bs": 2360,
      "Ġaccount": 2361,
      "Ġfall": 2362,
      "Ġport": 2363,
      "Ġtwe": 2364,
      "Ġcareer": 2365,
      "Ġoil": 2366,
      "Ġunderstanding": 2367,
      "Ġbenef": 2368,
      "ledge": 2369,
      "ĠYour": 2370,
      "ried": 2371,
      "uture": 2372,
      "Ġavailable": 2373,
      "Ġtook": 2374,
      "Ġtransl": 2375,
      "Ġblack": 2376,
      "plain": 2377,
      "sequ": 2378,
      "istic": 2379,
      "Ġscen": 2380,
      "ards": 2381,
      "Ġtrack": 2382,
      "Ġtoday": 2383,
      "Ġimprove": 2384,
      "Ġhelps": 2385,
      "Ġeconom": 2386,
      "ume": 2387,
      "Ch": 2388,
      "book": 2389,
      "Ġoutside": 2390,
      "Ġmatch": 2391,
      "Ġvide": 2392,
      "Ġservice": 2393,
      "Ġ:": 2394,
      "lying": 2395,
      "ĠJohn": 2396,
      "Ġmaterial": 2397,
      "Ġbecom": 2398,
      "nBy": 2399,
      "LE": 2400,
      "Ġeveryone": 2401,
      "Ġchecks": 2402,
      "Ġexact": 2403,
      "Ġtrad": 2404,
      "Ġu": 2405,
      "etimes": 2406,
      "ended": 2407,
      "Ġmaintain": 2408,
      "`.\\": 2409,
      "che": 2410,
      "rite": 2411,
      "Ġstudy": 2412,
      "rix": 2413,
      "Ġflo": 2414,
      ");\\": 2415,
      "face": 2416,
      "anation": 2417,
      "Ġnp": 2418,
      "vices": 2419,
      "ĠZ": 2420,
      "Ġfrequ": 2421,
      "Ġoccur": 2422,
      "Ġmanage": 2423,
      "ĠGo": 2424,
      "ilt": 2425,
      "Ġwomen": 2426,
      "ny": 2427,
      "Ġwhole": 2428,
      "ĠPre": 2429,
      "Ġfr": 2430,
      "Ġdeg": 2431,
      "Ġstudent": 2432,
      "Ġweight": 2433,
      "nN": 2434,
      "Ġbehav": 2435,
      "Ġhot": 2436,
      "Ġgreater": 2437,
      "Ġclose": 2438,
      "Ġfac": 2439,
      "Ġtypically": 2440,
      "Ġcreating": 2441,
      "Ġmot": 2442,
      "Ġnamed": 2443,
      "Ġnames": 2444,
      "idence": 2445,
      "Ġsorted": 2446,
      "Ġassign": 2447,
      "Ġnear": 2448,
      "Ġexam": 2449,
      "ift": 2450,
      "ĠPr": 2451,
      "anks": 2452,
      "Ġapproach": 2453,
      "Ġcorrespon": 2454,
      "Ġwhite": 2455,
      "arily": 2456,
      "Ġbi": 2457,
      "ĠCertain": 2458,
      "ĠCreate": 2459,
      "empt": 2460,
      "Ġrout": 2461,
      "artment": 2462,
      "Ġeduc": 2463,
      "Ġmethods": 2464,
      "Ġeverything": 2465,
      "Ġusers": 2466,
      "ĠWorld": 2467,
      "ĠOut": 2468,
      "ians": 2469,
      "Ġearly": 2470,
      "Ġacross": 2471,
      "Ġ30": 2472,
      "length": 2473,
      "ĠMay": 2474,
      "Ġappropri": 2475,
      "though": 2476,
      "imate": 2477,
      "19": 2478,
      "ĠPart": 2479,
      "ĠWell": 2480,
      "son": 2481,
      "urope": 2482,
      "ĠFl": 2483,
      "uate": 2484,
      "])": 2485,
      "Ġdocument": 2486,
      "ĠEm": 2487,
      "ged": 2488,
      "Ġaccept": 2489,
      "ĠJavaScript": 2490,
      "Ġassoci": 2491,
      "Ġmarket": 2492,
      "Ġbring": 2493,
      "Ġconclusion": 2494,
      "Ġrock": 2495,
      "Ġperiod": 2496,
      "words": 2497,
      "ĠCertainly": 2498,
      "value": 2499,
      "12": 2500,
      "Ġrecipe": 2501,
      "Ġconvert": 2502,
      "Ġinflu": 2503,
      "ĠSQL": 2504,
      "Ġbelie": 2505,
      "iddle": 2506,
      "cal": 2507,
      "Ġasked": 2508,
      "ront": 2509,
      "Ġaccom": 2510,
      "Ġsoci": 2511,
      "Ġconne": 2512,
      "ĠCM": 2513,
      "Ġtypes": 2514,
      "gar": 2515,
      "Ġfuture": 2516,
      "Ġmanag": 2517,
      "Ġminutes": 2518,
      "Ġbat": 2519,
      "ĠSy": 2520,
      "ĠJust": 2521,
      "olution": 2522,
      "Ġphilos": 2523,
      "Ġgirl": 2524,
      "Ġut": 2525,
      "sp": 2526,
      "Ġ%": 2527,
      "load": 2528,
      "Ġbegin": 2529,
      "Ġconcept": 2530,
      "Ġcomes": 2531,
      "cent": 2532,
      "Ġneeded": 2533,
      "Ġsoft": 2534,
      "Ġaspect": 2535,
      "iously": 2536,
      "Ġengineering": 2537,
      "ĠChrist": 2538,
      "step": 2539,
      "low": 2540,
      "Ġespecially": 2541,
      "Ġparameter": 2542,
      "Ġonline": 2543,
      "Ġcreated": 2544,
      "Ġtool": 2545,
      "AT": 2546,
      "ma": 2547,
      "Ġextract": 2548,
      "ĠAny": 2549,
      "Ġinside": 2550,
      "Ġfoot": 2551,
      "ĠTherefore": 2552,
      "Ġconcern": 2553,
      "Ġant": 2554,
      "Ġmonths": 2555,
      "Ġtrain": 2556,
      "Ġremove": 2557,
      "ĠDet": 2558,
      "Ġrow": 2559,
      "ration": 2560,
      "ĠEn": 2561,
      "Ġresour": 2562,
      "like": 2563,
      "Ġsnipp": 2564,
      "Ġitself": 2565,
      "Ġdeath": 2566,
      "aken": 2567,
      "ĠInst": 2568,
      "ĠCal": 2569,
      "aving": 2570,
      "Ġincludes": 2571,
      "Ġpolice": 2572,
      "Ġcomponents": 2573,
      "Ġtried": 2574,
      "ograph": 2575,
      "gers": 2576,
      "pose": 2577,
      "Ġhigher": 2578,
      "Ġ199": 2579,
      "Ġphone": 2580,
      "Ġaccording": 2581,
      "Ġ**": 2582,
      "isf": 2583,
      "sort": 2584,
      "Ġcir": 2585,
      "rodu": 2586,
      "Ġchall": 2587,
      "ication": 2588,
      "Ġbase": 2589,
      "Ġasking": 2590,
      "Ġaffect": 2591,
      "irth": 2592,
      "Ġdrink": 2593,
      "avas": 2594,
      "Ġpriv": 2595,
      "ĠAll": 2596,
      "Ġmix": 2597,
      "Ġgenerally": 2598,
      "Ġiterate": 2599,
      "ched": 2600,
      "ĠCMV": 2601,
      "Ġpick": 2602,
      "Ġsqu": 2603,
      "itionally": 2604,
      "????": 2605,
      "ges": 2606,
      "Ġtweet": 2607,
      "Ġtreat": 2608,
      "Ġthinking": 2609,
      "Ġeasy": 2610,
      "avascript": 2611,
      "Ġcame": 2612,
      "Ġsex": 2613,
      "ĠEurope": 2614,
      "Ġsnippet": 2615,
      "ott": 2616,
      "go": 2617,
      "Ġsun": 2618,
      "Ġnothing": 2619,
      "Ġcat": 2620,
      "ĠApp": 2621,
      "resh": 2622,
      "sy": 2623,
      "Ġliving": 2624,
      "Ġfit": 2625,
      "ighb": 2626,
      "Ġur": 2627,
      "Ġpaper": 2628,
      "Ġquite": 2629,
      "Ġparameters": 2630,
      "50": 2631,
      "Ġdetails": 2632,
      "Ġsolve": 2633,
      "Ġdem": 2634,
      "stems": 2635,
      "Ġreplace": 2636,
      "nYou": 2637,
      "ilities": 2638,
      "oms": 2639,
      "atisf": 2640,
      "ĠAd": 2641,
      "Ġbooks": 2642,
      "Ġpattern": 2643,
      "Ġmatter": 2644,
      "Ġey": 2645,
      "`)": 2646,
      "Ġwebs": 2647,
      "ĠAPI": 2648,
      "Ġdevelopment": 2649,
      "Ġago": 2650,
      "Ġwatch": 2651,
      "ĠGr": 2652,
      "Ġnote": 2653,
      "unch": 2654,
      "aves": 2655,
      "Ġevents": 2656,
      "bum": 2657,
      "Ġdeb": 2658,
      "ores": 2659,
      "class": 2660,
      "Ġchoose": 2661,
      "ĠAm": 2662,
      "Ġbuilding": 2663,
      "Ġfinal": 2664,
      "Ġblood": 2665,
      "ĠAlso": 2666,
      "Ġtree": 2667,
      "Tr": 2668,
      "Ġrefer": 2669,
      "de": 2670,
      "javascript": 2671,
      "={": 2672,
      "Ġcop": 2673,
      "Ġansw": 2674,
      "vent": 2675,
      "ĠSince": 2676,
      "Ġmag": 2677,
      "Ġproblems": 2678,
      "Ġ11": 2679,
      "Ġglo": 2680,
      "Ġgra": 2681,
      "ĠDes": 2682,
      "Ġ!": 2683,
      "Ġappropriate": 2684,
      "oring": 2685,
      "Ġremo": 2686,
      "date": 2687,
      "ators": 2688,
      "Ġchoice": 2689,
      "Ġstat": 2690,
      "Ġrestaurant": 2691,
      "Ġhtt": 2692,
      "Ġknowledge": 2693,
      "iting": 2694,
      "Ġsaying": 2695,
      "Ġ__": 2696,
      "ĠNot": 2697,
      "Ġpolitical": 2698,
      "Ġmeas": 2699,
      "ĠOptions": 2700,
      "List": 2701,
      "SS": 2702,
      "Ġcontact": 2703,
      "Ġload": 2704,
      "Ġexcept": 2705,
      "ivity": 2706,
      "izer": 2707,
      "ĠGener": 2708,
      "Ġrequired": 2709,
      "Ġamong": 2710,
      "Ġheart": 2711,
      "Ġband": 2712,
      "Ġri": 2713,
      "ister": 2714,
      "ips": 2715,
      "Ġproperty": 2716,
      "pare": 2717,
      "Ġloss": 2718,
      "Ġinterested": 2719,
      "Ġdemon": 2720,
      "Ġobjects": 2721,
      "Ġbar": 2722,
      "reme": 2723,
      "entially": 2724,
      "onac": 2725,
      "Ġquality": 2726,
      "Ġwanted": 2727,
      "Ġprevent": 2728,
      "Ġplot": 2729,
      "selves": 2730,
      "viewer": 2731,
      "Ġtemperature": 2732,
      "cy": 2733,
      "ensive": 2734,
      "Ġanal": 2735,
      "Ġscre": 2736,
      "Ġheat": 2737,
      "index": 2738,
      "Ġspecifically": 2739,
      "gen": 2740,
      "Ġproducts": 2741,
      "ider": 2742,
      "Ġconnect": 2743,
      "Ġattempt": 2744,
      "cription": 2745,
      "Ġsequ": 2746,
      "Ġbasic": 2747,
      "Ġhalf": 2748,
      "Ġphysical": 2749,
      "train": 2750,
      "Ġvariables": 2751,
      "Ġstarting": 2752,
      "Ġcountries": 2753,
      "Ġdam": 2754,
      "aset": 2755,
      "Ġestab": 2756,
      "llo": 2757,
      "Ġactual": 2758,
      "reci": 2759,
      "ibonac": 2760,
      "ibonacci": 2761,
      "Ġidentify": 2762,
      "Ġwriting": 2763,
      "ude": 2764,
      "Ġrad": 2765,
      "Ġkids": 2766,
      "agraph": 2767,
      "Ġegg": 2768,
      "ĠBrit": 2769,
      "Ġcondition": 2770,
      "oes": 2771,
      "Ġleave": 2772,
      "Ġaud": 2773,
      "iol": 2774,
      "Ġefficient": 2775,
      "len": 2776,
      "Ġacadem": 2777,
      "Ġinteger": 2778,
      "Ġcomputer": 2779,
      "ience": 2780,
      "Ġarguments": 2781,
      "Ġhear": 2782,
      "RL": 2783,
      "Ġ16": 2784,
      "Ġcompet": 2785,
      "Ġblock": 2786,
      "Ġalbum": 2787,
      "ken": 2788,
      "Ġpopulation": 2789,
      "Ġtravel": 2790,
      "Ġsafe": 2791,
      "\":": 2792,
      "ĠMe": 2793,
      "Ġadded": 2794,
      "Ġsource": 2795,
      "Ġ`<": 2796,
      "Ġworth": 2797,
      "ĠOh": 2798,
      "oint": 2799,
      "Ġaccompl": 2800,
      "Ġcra": 2801,
      "oot": 2802,
      "Ġadvice": 2803,
      "sub": 2804,
      "Ġalmost": 2805,
      "Ġserver": 2806,
      "Ġmachine": 2807,
      "Ġbutter": 2808,
      "Ġwar": 2809,
      "ony": 2810,
      "Ġground": 2811,
      "Ġreviewer": 2812,
      "elt": 2813,
      "Ġdest": 2814,
      "Ġcouple": 2815,
      "Ġface": 2816,
      "Ġcurrently": 2817,
      "ĠOther": 2818,
      "Ġcorresponding": 2819,
      "Ġanimals": 2820,
      "It": 2821,
      "Ġyet": 2822,
      "Ġsleep": 2823,
      "ysis": 2824,
      "Ġideas": 2825,
      "erous": 2826,
      "Ġimage": 2827,
      "Ġparts": 2828,
      "Ġsummary": 2829,
      "abel": 2830,
      "aste": 2831,
      "Ġequation": 2832,
      "ĠBl": 2833,
      "path": 2834,
      "Ġrefers": 2835,
      "Ġpan": 2836,
      "Ġoffer": 2837,
      "Ġtowards": 2838,
      "Ġwritten": 2839,
      "Ġrelevant": 2840,
      "Ġexecut": 2841,
      "Ġgets": 2842,
      "oud": 2843,
      "Ġphot": 2844,
      "Ġstyle": 2845,
      "orry": 2846,
      "fect": 2847,
      "Ġlonger": 2848,
      "Ġfactors": 2849,
      "Ġseason": 2850,
      "Ġconsist": 2851,
      "Ar": 2852,
      "Ġdemonstr": 2853,
      "Ġparents": 2854,
      "Ġid": 2855,
      "Ġreading": 2856,
      "Ġgoes": 2857,
      "Ġwait": 2858,
      "Ġadding": 2859,
      "Ġwonder": 2860,
      "case": 2861,
      "Ġhit": 2862,
      "cer": 2863,
      "ole": 2864,
      "Ġincrease": 2865,
      "ored": 2866,
      "enn": 2867,
      "Ġhistor": 2868,
      "Ġspeak": 2869,
      "Ġcapital": 2870,
      "ising": 2871,
      "Ġretrieve": 2872,
      "Ġjoke": 2873,
      "ĠDoes": 2874,
      "Ġimm": 2875,
      "Ġmodify": 2876,
      "Ġparty": 2877,
      "ĠBr": 2878,
      "ĠChe": 2879,
      "where": 2880,
      "Ġphrase": 2881,
      "Ġrecogn": 2882,
      "come": 2883,
      "Ġindustry": 2884,
      "Ġgoal": 2885,
      "file": 2886,
      "ĠPe": 2887,
      "Ġpassword": 2888,
      "Ġdecision": 2889,
      "CT": 2890,
      ">`": 2891,
      "Ġplaying": 2892,
      "Ġcolumns": 2893,
      "icy": 2894,
      "Ġspeed": 2895,
      "illed": 2896,
      "olve": 2897,
      "Ġfire": 2898,
      "ĠMar": 2899,
      "Ġimpl": 2900,
      "rror": 2901,
      "order": 2902,
      "Ġbehind": 2903,
      "Ġparagraph": 2904,
      "RO": 2905,
      "une": 2906,
      "Ġnode": 2907,
      "Ġsuggests": 2908,
      "Ġdeep": 2909,
      "Ġstuff": 2910,
      "point": 2911,
      "Ġnormal": 2912,
      "Ġpair": 2913,
      "chan": 2914,
      "aced": 2915,
      "IN": 2916,
      "Ġshop": 2917,
      "do": 2918,
      "Ġprotect": 2919,
      "Ġiterates": 2920,
      "Ġmedia": 2921,
      "Ġbackground": 2922,
      "Ġscient": 2923,
      "Ġshare": 2924,
      "Ġresulting": 2925,
      "Ġhappy": 2926,
      "Ġrisk": 2927,
      "Ġing": 2928,
      "Ġbal": 2929,
      "ĠCol": 2930,
      "Ġneighb": 2931,
      "AR": 2932,
      "Ġreturned": 2933,
      "Ġrelig": 2934,
      "Ġmass": 2935,
      "Ġ+=": 2936,
      "Ġ14": 2937,
      "Ġspecified": 2938,
      ")`": 2939,
      "Cl": 2940,
      "pass": 2941,
      "ression": 2942,
      "acc": 2943,
      "ster": 2944,
      "Ġbirth": 2945,
      "imately": 2946,
      "Ġinvolved": 2947,
      "eras": 2948,
      "Ġtag": 2949,
      "lex": 2950,
      "Ġyourself": 2951,
      "ai": 2952,
      "Ġkill": 2953,
      "ensor": 2954,
      "Ġsometimes": 2955,
      "Ġconve": 2956,
      "Ġcup": 2957,
      "Ġ17": 2958,
      "Ġbehavior": 2959,
      "Ġessential": 2960,
      "Ġcapt": 2961,
      "ike": 2962,
      "'.": 2963,
      "ream": 2964,
      "Ġreduce": 2965,
      "\">": 2966,
      "Ġsystems": 2967,
      "Ġnetwork": 2968,
      "Ġcalling": 2969,
      "ological": 2970,
      "Ġincor": 2971,
      "Ġones": 2972,
      "td": 2973,
      "ued": 2974,
      "Ġfigure": 2975,
      "right": 2976,
      "Ġvideo": 2977,
      "Ġautom": 2978,
      "Ġbelow": 2979,
      "ports": 2980,
      "Ġability": 2981,
      "ĠOutput": 2982,
      "Ġfavor": 2983,
      "Ġ25": 2984,
      "Ġletter": 2985,
      "Ġconditions": 2986,
      "Ġconnection": 2987,
      "fit": 2988,
      "Ġpub": 2989,
      "Ġwide": 2990,
      "ĠPhD": 2991,
      "Re": 2992,
      "Ġthemselves": 2993,
      "aff": 2994,
      "Ġball": 2995,
      "Ġregard": 2996,
      "erv": 2997,
      "rel": 2998,
      "Ġprime": 2999,
      "ley": 3000,
      "acher": 3001,
      "Ġ50": 3002,
      "Ġappreci": 3003,
      "plot": 3004,
      "oice": 3005,
      "Ġrate": 3006,
      "Ġadditional": 3007,
      "Wh": 3008,
      "Ġattack": 3009,
      "Ġmembers": 3010,
      "pes": 3011,
      "Ġupdate": 3012,
      "Ġmyself": 3013,
      "irm": 3014,
      "ares": 3015,
      "Ġinteresting": 3016,
      "umb": 3017,
      "Ġconclude": 3018,
      "over": 3019,
      "Ġindividuals": 3020,
      "Ġcommunity": 3021,
      "Ġmother": 3022,
      "Ġtopic": 3023,
      "Ġsounds": 3024,
      "200": 3025,
      "ql": 3026,
      "Ġ13": 3027,
      "Ġopin": 3028,
      "lib": 3029,
      "lished": 3030,
      "wo": 3031,
      "olute": 3032,
      "medi": 3033,
      "True": 3034,
      "Ġfix": 3035,
      "Ġliter": 3036,
      "Ġtaken": 3037,
      "Ġfields": 3038,
      "Ġmemory": 3039,
      "osing": 3040,
      "Ġpassage": 3041,
      "Ġtalking": 3042,
      "yd": 3043,
      "ĠSc": 3044,
      "Name": 3045,
      "Ġswe": 3046,
      "Ġresources": 3047,
      "Ġanswers": 3048,
      "miss": 3049,
      "ĠGerm": 3050,
      "nA": 3051,
      "Ġextreme": 3052,
      "ival": 3053,
      "ategor": 3054,
      "ĠSu": 3055,
      "?\"\"": 3056,
      "Ġfunctions": 3057,
      "Ġmaybe": 3058,
      "ured": 3059,
      "Ġtax": 3060,
      "Ġvol": 3061,
      "ortun": 3062,
      "random": 3063,
      "Ġoffice": 3064,
      "ategory": 3065,
      "Ġforce": 3066,
      "Ġjour": 3067,
      "Ġbuilt": 3068,
      "pite": 3069,
      "olate": 3070,
      "Ġpassing": 3071,
      "ĠAdditionally": 3072,
      "Ġskills": 3073,
      "Ġprimary": 3074,
      "Ġconvers": 3075,
      "Ġdataset": 3076,
      "char": 3077,
      "ises": 3078,
      "Ġpers": 3079,
      "Ġlayer": 3080,
      "Ġroot": 3081,
      "Ġhor": 3082,
      "Ġfollows": 3083,
      "Ġboy": 3084,
      "Ġlegal": 3085,
      "Ġdisc": 3086,
      "Ġreasons": 3087,
      "uce": 3088,
      "Ġnews": 3089,
      "Ġcompan": 3090,
      "ĠJS": 3091,
      "Ġcollege": 3092,
      "af": 3093,
      "Ġwebsite": 3094,
      "ĠWhich": 3095,
      "Ġlack": 3096,
      "Ġsuit": 3097,
      "just": 3098,
      "Ġviol": 3099,
      "Ġheard": 3100,
      "Ġfight": 3101,
      "rench": 3102,
      "Ġfeature": 3103,
      "ĠInside": 3104,
      "learn": 3105,
      "Ġlives": 3106,
      "Ġextra": 3107,
      "Ġdefault": 3108,
      "ophy": 3109,
      "Ġplayed": 3110,
      "Ġmillion": 3111,
      "ĠYork": 3112,
      "Ġann": 3113,
      "ĠPerson": 3114,
      "ifies": 3115,
      "Ġbox": 3116,
      "Ġhost": 3117,
      "Ġactions": 3118,
      "iful": 3119,
      "Ġlen": 3120,
      "Ġcases": 3121,
      "Ġfine": 3122,
      "ament": 3123,
      "apan": 3124,
      "erc": 3125,
      "Ġsugar": 3126,
      "itary": 3127,
      "zy": 3128,
      "Ġlocated": 3129,
      "Ġappear": 3130,
      "Ġteach": 3131,
      "Ġagree": 3132,
      "Ġshows": 3133,
      "11": 3134,
      "place": 3135,
      "ama": 3136,
      "Ġcompletely": 3137,
      "Ġmodern": 3138,
      "Ġscience": 3139,
      "Ġanalysis": 3140,
      "ĠRus": 3141,
      "Ġbab": 3142,
      "amb": 3143,
      "Ġbecame": 3144,
      "Ġplant": 3145,
      "ĠRo": 3146,
      "su": 3147,
      "Ġbutton": 3148,
      "size": 3149,
      "ĠWould": 3150,
      "ĠOb": 3151,
      "append": 3152,
      "Error": 3153,
      "Ġprinted": 3154,
      "etic": 3155,
      "Ġtown": 3156,
      "([": 3157,
      "Ġtechnology": 3158,
      "board": 3159,
      "ties": 3160,
      "Ġcreates": 3161,
      "Ġfeeling": 3162,
      "Ġassociated": 3163,
      "Ġthird": 3164,
      "Ġ198": 3165,
      "ĠURL": 3166,
      "aging": 3167,
      "Ġeasily": 3168,
      "ided": 3169,
      "Ġslow": 3170,
      "ees": 3171,
      "Ġchalleng": 3172,
      "Ġareas": 3173,
      "rap": 3174,
      "();": 3175,
      "eria": 3176,
      "Ġexpression": 3177,
      "ango": 3178,
      "Ġheav": 3179,
      "icken": 3180,
      "Ġingred": 3181,
      "Ġnice": 3182,
      "Ġopportun": 3183,
      "nI": 3184,
      "Ġdecl": 3185,
      "oura": 3186,
      "ĠRep": 3187,
      "Ġassistant": 3188,
      "Ġfront": 3189,
      "Ġstored": 3190,
      "Ġexactly": 3191,
      "title": 3192,
      "Ġeffort": 3193,
      "Ġwarm": 3194,
      "Ġmedical": 3195,
      "Ex": 3196,
      "ache": 3197,
      "autiful": 3198,
      "Ġbecomes": 3199,
      "Ġpand": 3200,
      "ĠEarth": 3201,
      "Ġlargest": 3202,
      "Ġeval": 3203,
      "Ġdepend": 3204,
      "Ġevidence": 3205,
      "Ġreach": 3206,
      "Ġcamp": 3207,
      "main": 3208,
      "Ġnature": 3209,
      "Ġprofessional": 3210,
      "Ġconsum": 3211,
      "Ġintegers": 3212,
      "Ġactivity": 3213,
      "Ġpurpose": 3214,
      "lay": 3215,
      "][": 3216,
      "Ġperfect": 3217,
      "Ġstandard": 3218,
      "Ġcoll": 3219,
      "ĠHis": 3220,
      "ites": 3221,
      "itch": 3222,
      "ĠIve": 3223,
      "Ġprevious": 3224,
      "Ġcake": 3225,
      "uild": 3226,
      "Ġworked": 3227,
      "Ġcustomers": 3228,
      "nNext": 3229,
      "cont": 3230,
      "ĠWar": 3231,
      "Ġchem": 3232,
      "bed": 3233,
      "json": 3234,
      "ĠOnce": 3235,
      "ili": 3236,
      "Ġcool": 3237,
      "ands": 3238,
      "Ġhom": 3239,
      "Ġcy": 3240,
      "etch": 3241,
      "Ġsets": 3242,
      "ĠJapan": 3243,
      "Ġvisit": 3244,
      "Ġcold": 3245,
      "used": 3246,
      "Ġfiles": 3247,
      "ĠAf": 3248,
      "ana": 3249,
      "Ġter": 3250,
      "Ġhon": 3251,
      "Ġconstruct": 3252,
      "Ġrows": 3253,
      "oo": 3254,
      "Ġproviding": 3255,
      "Ġpossib": 3256,
      "Ġmiddle": 3257,
      "Ġdescribe": 3258,
      "Ġhumans": 3259,
      "Ġord": 3260,
      "ption": 3261,
      "ening": 3262,
      "ĠRes": 3263,
      "anced": 3264,
      "Ġconver": 3265,
      "Ġquickly": 3266,
      "ifier": 3267,
      "30": 3268,
      "Ġill": 3269,
      "Ġcommit": 3270,
      "Ġcontribut": 3271,
      "Ġguess": 3272,
      "ĠThanks": 3273,
      "Ġfather": 3274,
      "Ġimmedi": 3275,
      "ging": 3276,
      "Ġtele": 3277,
      "Ġcand": 3278,
      "ello": 3279,
      "Ġreasoning": 3280,
      "Ġseparate": 3281,
      "Ġfast": 3282,
      "Ġreleased": 3283,
      "Ġdegree": 3284,
      "ew": 3285,
      "Ġrules": 3286,
      "Ġnumpy": 3287,
      "uth": 3288,
      "Ġdru": 3289,
      "init": 3290,
      "ying": 3291,
      "rest": 3292,
      "Ġcontaining": 3293,
      "na": 3294,
      "Ġhappened": 3295,
      "Ġmechan": 3296,
      "ĠCar": 3297,
      "==": 3298,
      "Ġsmaller": 3299,
      "more": 3300,
      "Ġactivities": 3301,
      "ĠDeterm": 3302,
      "cret": 3303,
      "year": 3304,
      "Ġcream": 3305,
      "Ġmatrix": 3306,
      "Ġpark": 3307,
      "icles": 3308,
      "Ġspecify": 3309,
      "Ġfair": 3310,
      "ĠAmerica": 3311,
      "Ġcontinue": 3312,
      "25": 3313,
      "Ġweeks": 3314,
      "Ġfeed": 3315,
      "Ġcooking": 3316,
      "Pro": 3317,
      "Ġindicates": 3318,
      "astic": 3319,
      "Ġcard": 3320,
      "Ġpict": 3321,
      "hens": 3322,
      "eed": 3323,
      "ĠExplain": 3324,
      "ĠTe": 3325,
      "xy": 3326,
      "Ġmoment": 3327,
      "ĠDon": 3328,
      "Ġsuff": 3329,
      "ĠOver": 3330,
      "fact": 3331,
      "Ġprivate": 3332,
      "Ġconv": 3333,
      "opt": 3334,
      "ĠCo": 3335,
      "Ġculture": 3336,
      "jango": 3337,
      "unction": 3338,
      "Ġimplies": 3339,
      "Ġclasses": 3340,
      "Ġsociety": 3341,
      "Ġexpected": 3342,
      "Ġspecies": 3343,
      "Ġcalls": 3344,
      "ping": 3345,
      "Ġlate": 3346,
      "Ġrev": 3347,
      "Ġcontr": 3348,
      "Ġful": 3349,
      "ĠSer": 3350,
      "We": 3351,
      "ĠUsage": 3352,
      "rome": 3353,
      "Ġsche": 3354,
      "epend": 3355,
      "ĠRed": 3356,
      "Ġdetailed": 3357,
      "ĠData": 3358,
      "Ġmeat": 3359,
      "Num": 3360,
      "Ġpurch": 3361,
      "Ġstock": 3362,
      "Ġcorrectly": 3363,
      "Ġdescribed": 3364,
      "ĠMo": 3365,
      "iet": 3366,
      "Ġhair": 3367,
      "Ġapply": 3368,
      "Ġindicating": 3369,
      "Ġdesigned": 3370,
      "Ġglobal": 3371,
      "ĠMan": 3372,
      "ivil": 3373,
      "Ġsetting": 3374,
      "number": 3375,
      "imal": 3376,
      "Ġstrateg": 3377,
      "Ġgrowth": 3378,
      "Ġrecently": 3379,
      "Ġleading": 3380,
      "ogle": 3381,
      "era": 3382,
      "eral": 3383,
      "vies": 3384,
      "ĠMon": 3385,
      "enced": 3386,
      "Ġpressure": 3387,
      "bol": 3388,
      "htt": 3389,
      "Ġremember": 3390,
      "Ġconstant": 3391,
      "idge": 3392,
      "find": 3393,
      "ĠPres": 3394,
      "Ġhealthy": 3395,
      "Ġaw": 3396,
      "curity": 3397,
      "Ġlost": 3398,
      "ĠMr": 3399,
      "Ġminimum": 3400,
      "Ġcalculates": 3401,
      "aught": 3402,
      "Ġsend": 3403,
      "Ġsave": 3404,
      "ĠWest": 3405,
      "ĠCho": 3406,
      "Ġhighlight": 3407,
      "Ġgas": 3408,
      "ruction": 3409,
      "Ġpun": 3410,
      "Hello": 3411,
      "hest": 3412,
      "ĠSim": 3413,
      "Ġattribute": 3414,
      "ĠTrump": 3415,
      "ĠJSON": 3416,
      "Ġpow": 3417,
      "ses": 3418,
      "Ġ`[": 3419,
      "Ġlarger": 3420,
      "State": 3421,
      "Ġsatisf": 3422,
      "hold": 3423,
      "Ġtasks": 3424,
      "cher": 3425,
      "Ġstru": 3426,
      "Ġstress": 3427,
      "Ġsuccessful": 3428,
      "Ġofficial": 3429,
      "Ġgreen": 3430,
      "ĠWill": 3431,
      "Ġproduction": 3432,
      "Ġmis": 3433,
      "ELE": 3434,
      "Ġnut": 3435,
      "Data": 3436,
      "Ġdraw": 3437,
      "ĠDetermine": 3438,
      "Ġdang": 3439,
      "pir": 3440,
      "etime": 3441,
      "inct": 3442,
      "Ġ197": 3443,
      "Ġentailed": 3444,
      "Ġeducation": 3445,
      "Ġfinan": 3446,
      "ĠDef": 3447,
      "RE": 3448,
      "Ġwife": 3449,
      "encies": 3450,
      "ulate": 3451,
      "otes": 3452,
      "Ġanimal": 3453,
      "itely": 3454,
      "Ġhttps": 3455,
      "Ġsubst": 3456,
      "Ġgames": 3457,
      "Ġoperator": 3458,
      "Con": 3459,
      "np": 3460,
      "Ġcompanies": 3461,
      "Ġjobs": 3462,
      "Ġabsolute": 3463,
      "ero": 3464,
      "Ġinvolves": 3465,
      "Ġstarts": 3466,
      "Ġborn": 3467,
      "Ġeffective": 3468,
      "Ġgain": 3469,
      "Ġblue": 3470,
      "uge": 3471,
      "Ġcru": 3472,
      "Ġplants": 3473,
      "Ġsalt": 3474,
      "Ġpackage": 3475,
      "pack": 3476,
      "ĠKe": 3477,
      "Ġfat": 3478,
      "Ġ...": 3479,
      "Ġintrodu": 3480,
      "amm": 3481,
      "Ġveget": 3482,
      "Ġfem": 3483,
      "Ġdirectory": 3484,
      "phas": 3485,
      "room": 3486,
      "yle": 3487,
      "inter": 3488,
      "ffee": 3489,
      "Ġsequence": 3490,
      "down": 3491,
      "Ġutil": 3492,
      "Ġson": 3493,
      "ĠFrom": 3494,
      "ĠBoth": 3495,
      "pped": 3496,
      "sian": 3497,
      "Ġrepe": 3498,
      "Ġsaw": 3499,
      "ung": 3500,
      "uly": 3501,
      "ĠAust": 3502,
      "Ġaccurate": 3503,
      "Ġprote": 3504,
      "hter": 3505,
      "Ġtal": 3506,
      "ĠTrue": 3507,
      "Ġcategory": 3508,
      "Ġdistance": 3509,
      "Ġpractice": 3510,
      "Ġdry": 3511,
      "Ġprints": 3512,
      "Ġear": 3513,
      "ĠFrench": 3514,
      "Ġskin": 3515,
      "dom": 3516,
      "Ġsorry": 3517,
      "Ġdra": 3518,
      "lection": 3519,
      "Ġanalyze": 3520,
      "Ġexc": 3521,
      "Ġgives": 3522,
      "ĠBritish": 3523,
      "Ġdise": 3524,
      "Ġinterview": 3525,
      "Ġcells": 3526,
      "Ġdom": 3527,
      "Ġservices": 3528,
      "Ġbinary": 3529,
      "Ġplaces": 3530,
      "ĠSouth": 3531,
      "Ġreceived": 3532,
      "Ġtransport": 3533,
      "Ġthats": 3534,
      "Ġsus": 3535,
      "Ġsurface": 3536,
      "Ġ40": 3537,
      "Ġgroups": 3538,
      "ĠNorth": 3539,
      "ĠMake": 3540,
      "ĠFe": 3541,
      "Ġexerc": 3542,
      "({": 3543,
      "Ġ[]": 3544,
      "Ġthread": 3545,
      "Ġobser": 3546,
      "Ġhighly": 3547,
      "Ġassum": 3548,
      "vision": 3549,
      "reed": 3550,
      "Ġharm": 3551,
      "Ġstar": 3552,
      "hern": 3553,
      "Ġdefined": 3554,
      "Ġaspects": 3555,
      "Ġrecent": 3556,
      "earch": 3557,
      "Ġobtain": 3558,
      "Ġfish": 3559,
      "ls": 3560,
      "Ġcoming": 3561,
      "avig": 3562,
      "ech": 3563,
      "Ġsoon": 3564,
      "Ġcollect": 3565,
      "Ġinterpre": 3566,
      "Ġdead": 3567,
      "Ġemphas": 3568,
      "Ġdark": 3569,
      "ests": 3570,
      "ille": 3571,
      "Ġmilitary": 3572,
      "ĠWrite": 3573,
      "Ġengineer": 3574,
      "Ġmoving": 3575,
      "Ġmorning": 3576,
      "ĠDid": 3577,
      "nown": 3578,
      "Ġthroughout": 3579,
      "Ġfresh": 3580,
      "Ġweather": 3581,
      "ounds": 3582,
      "Ġfund": 3583,
      "Ġcategor": 3584,
      "split": 3585,
      "ades": 3586,
      "NT": 3587,
      "att": 3588,
      "ached": 3589,
      "Ġparticularly": 3590,
      "bon": 3591,
      "Ġsecurity": 3592,
      "roll": 3593,
      "oke": 3594,
      "Ġpassed": 3595,
      "mber": 3596,
      "Ġwants": 3597,
      "Ġprop": 3598,
      "Ġdifferences": 3599,
      "Ġlabel": 3600,
      "Ġice": 3601,
      "oe": 3602,
      "Ġled": 3603,
      "ĠGe": 3604,
      "Ġthreat": 3605,
      "Ġdu": 3606,
      "iding": 3607,
      "ET": 3608,
      "Ġimplementation": 3609,
      "OT": 3610,
      "Frame": 3611,
      "Ġfinding": 3612,
      "Ġhappens": 3613,
      "odes": 3614,
      "Ġdoctor": 3615,
      "Ġbed": 3616,
      "Ġcant": 3617,
      "Ġsurv": 3618,
      "Ġeffectively": 3619,
      "sv": 3620,
      "reg": 3621,
      "atively": 3622,
      "Ġflow": 3623,
      "alled": 3624,
      "eah": 3625,
      "aches": 3626,
      "Ġarch": 3627,
      "Ġaltern": 3628,
      "Ġaddition": 3629,
      "Ġhelpful": 3630,
      "Ġoperations": 3631,
      "Ġrating": 3632,
      "Ġbaking": 3633,
      "oman": 3634,
      "Ġfru": 3635,
      "Ġ@": 3636,
      "Ġmissing": 3637,
      "Ġrecipes": 3638,
      "Ġdrive": 3639,
      "Ġbroad": 3640,
      "LL": 3641,
      "View": 3642,
      "iced": 3643,
      "Ġtou": 3644,
      "model": 3645,
      "Ġcover": 3646,
      "Ġingredients": 3647,
      "ĠRead": 3648,
      "Ġgun": 3649,
      "idth": 3650,
      "Ġeasier": 3651,
      "ID": 3652,
      "Ġfalse": 3653,
      "round": 3654,
      "ceed": 3655,
      "Ġge": 3656,
      "cending": 3657,
      "abor": 3658,
      "Ġattention": 3659,
      "rib": 3660,
      "Ġlevels": 3661,
      "Ġslight": 3662,
      "Ġcomfort": 3663,
      "Ġstatic": 3664,
      "Ġprogress": 3665,
      "Ġfail": 3666,
      "pred": 3667,
      "Ġchicken": 3668,
      "15": 3669,
      "rict": 3670,
      "ĠWho": 3671,
      "Ġparticip": 3672,
      "Ġdf": 3673,
      "orial": 3674,
      "urt": 3675,
      "Ġcam": 3676,
      "Ġrequirements": 3677,
      "Ġcompre": 3678,
      "Ġspread": 3679,
      "dict": 3680,
      "Ġplayer": 3681,
      "Ġok": 3682,
      "Ġcompared": 3683,
      "Ġstatements": 3684,
      "++)": 3685,
      "Ġmodels": 3686,
      "Ġden": 3687,
      "sess": 3688,
      "lict": 3689,
      "ĠSw": 3690,
      "ĠKing": 3691,
      "const": 3692,
      "item": 3693,
      "eff": 3694,
      "Ġ196": 3695,
      "Ġveh": 3696,
      "iday": 3697,
      "Ġgiving": 3698,
      "ELECT": 3699,
      "Ġcomment": 3700,
      "ĠMost": 3701,
      "label": 3702,
      "Ġgenerated": 3703,
      "Ġregion": 3704,
      "Ġkid": 3705,
      "Ġroad": 3706,
      "ms": 3707,
      "Ġult": 3708,
      "Ġboard": 3709,
      "Ġtaste": 3710,
      "Ġexplanation": 3711,
      "aughter": 3712,
      "ibility": 3713,
      "ada": 3714,
      "hood": 3715,
      "king": 3716,
      "Ġlongest": 3717,
      "Ġphilosophy": 3718,
      "ĠComm": 3719,
      "otal": 3720,
      "Ġallowed": 3721,
      "Ġeating": 3722,
      "Ġpoor": 3723,
      "';": 3724,
      "ĠPer": 3725,
      "ĠRepublic": 3726,
      "Ġsoftware": 3727,
      "ula": 3728,
      "numbers": 3729,
      "Ġlibraries": 3730,
      "Ġbrain": 3731,
      "Ġstrugg": 3732,
      "Ġrequires": 3733,
      "Ġcompare": 3734,
      "www": 3735,
      "Ġburn": 3736,
      "ĠString": 3737,
      "Ġdescription": 3738,
      "ĠGu": 3739,
      "Ġfa": 3740,
      "Ġaren": 3741,
      "ram": 3742,
      "ynam": 3743,
      "Ġlists": 3744,
      "Ġsides": 3745,
      "ection": 3746,
      "ndef": 3747,
      "Ġfinancial": 3748,
      "Ġuseful": 3749,
      "Ġexperiences": 3750,
      "Ġmovies": 3751,
      "ĠPar": 3752,
      "Ġbegan": 3753,
      "Ġhands": 3754,
      "Ġsens": 3755,
      "iff": 3756,
      "Ġsaf": 3757,
      "Text": 3758,
      "icro": 3759,
      "ester": 3760,
      "Array": 3761,
      "Ġcoffee": 3762,
      "react": 3763,
      "ĠFibonacci": 3764,
      "df": 3765,
      "Ġbaby": 3766,
      "ope": 3767,
      "ension": 3768,
      "Ġshape": 3769,
      "cient": 3770,
      "Ġinj": 3771,
      "Ġarri": 3772,
      "Ġvariety": 3773,
      "Ġappears": 3774,
      "Ġelectric": 3775,
      "Ġhowever": 3776,
      "Ġsold": 3777,
      "ĠInt": 3778,
      "Ġclos": 3779,
      "Ġeffects": 3780,
      "itude": 3781,
      "ague": 3782,
      "Ġnational": 3783,
      "ĠSpe": 3784,
      "Ġstra": 3785,
      "ĠHar": 3786,
      "itution": 3787,
      "Ġeventually": 3788,
      "ĠDis": 3789,
      "Ġgar": 3790,
      "ocolate": 3791,
      "ĠAfric": 3792,
      "Ġbenefits": 3793,
      "rees": 3794,
      "Ġcross": 3795,
      "]`": 3796,
      "Ġlooks": 3797,
      "eter": 3798,
      "Val": 3799,
      "Ġcentury": 3800,
      "Ġforward": 3801,
      "ĠPresident": 3802,
      "Ġresponsible": 3803,
      "Ġdivis": 3804,
      "utions": 3805,
      "--------": 3806,
      "ains": 3807,
      "Ġencoura": 3808,
      "ĠUniversity": 3809,
      "imin": 3810,
      "Ġrequests": 3811,
      "Ġax": 3812,
      "ĠCSS": 3813,
      "ube": 3814,
      "aged": 3815,
      "Ġverb": 3816,
      "ped": 3817,
      "Ġsources": 3818,
      "Ġhimself": 3819,
      "ales": 3820,
      "Ġscore": 3821,
      "Ġmental": 3822,
      "Ġpip": 3823,
      "Ġcompar": 3824,
      "Ġdishes": 3825,
      "Ġcirc": 3826,
      "Ġpandas": 3827,
      "ĠPeople": 3828,
      "Ġ24": 3829,
      "Ġenter": 3830,
      "fil": 3831,
      "Ġtransform": 3832,
      "];": 3833,
      "based": 3834,
      "Ġsplit": 3835,
      "Ġjud": 3836,
      "ĠThank": 3837,
      "Ġproduce": 3838,
      "Ġtim": 3839,
      "Ġda": 3840,
      "Ġpiece": 3841,
      "Ġdescribes": 3842,
      "ously": 3843,
      "Ġopinion": 3844,
      "Ġbra": 3845,
      "ocr": 3846,
      "aling": 3847,
      "Ġlat": 3848,
      "Ġaccomplish": 3849,
      "Ġpal": 3850,
      "Ġadjust": 3851,
      "Ġlimit": 3852,
      "Ġstri": 3853,
      "ĠCount": 3854,
      "Ġbird": 3855,
      "inese": 3856,
      "Ġfill": 3857,
      "ĠNone": 3858,
      "Ġimag": 3859,
      "Ġotherwise": 3860,
      "Ġextremely": 3861,
      "Ġinitialize": 3862,
      "Ġdecided": 3863,
      "Ġtools": 3864,
      "atur": 3865,
      "Ġdire": 3866,
      "Ġwall": 3867,
      "Ġkn": 3868,
      "Ġlabels": 3869,
      "Ġdivid": 3870,
      "cean": 3871,
      "Ġbrown": 3872,
      "ĠAnalyze": 3873,
      "Ġaware": 3874,
      "Ġhighest": 3875,
      "Ġstreng": 3876,
      "inn": 3877,
      "Ġsauce": 3878,
      "Ġformer": 3879,
      "ĠCity": 3880,
      "ĠChina": 3881,
      ".)": 3882,
      "Ġdish": 3883,
      "Ġsitu": 3884,
      "ferences": 3885,
      "Ġnarr": 3886,
      "sych": 3887,
      "Ġten": 3888,
      "met": 3889,
      "Ġprefer": 3890,
      "Ġincluded": 3891,
      "Ġdouble": 3892,
      "het": 3893,
      "18": 3894,
      "Ġwearing": 3895,
      "inst": 3896,
      "Ġdele": 3897,
      "Ġincreasing": 3898,
      "Ġrecurs": 3899,
      "Ġ_": 3900,
      "Ġsymbol": 3901,
      "bit": 3902,
      "Ġdel": 3903,
      "play": 3904,
      "Ġmanagement": 3905,
      "friend": 3906,
      "Ġlines": 3907,
      "Ġ|": 3908,
      "atform": 3909,
      "urance": 3910,
      "atives": 3911,
      "\\',": 3912,
      "ucle": 3913,
      "Ġflavor": 3914,
      "Com": 3915,
      "Ġpresident": 3916,
      "vere": 3917,
      "agn": 3918,
      "Ġbank": 3919,
      "rying": 3920,
      "iques": 3921,
      "Ġproperties": 3922,
      "Ġusage": 3923,
      "Ġstick": 3924,
      "Ġadds": 3925,
      "ĠGood": 3926,
      "inci": 3927,
      "ĠâĢĻ": 3928,
      "Ġimmediately": 3929,
      "Ġfilter": 3930,
      "Ġconflict": 3931,
      "ĠCons": 3932,
      "nIf": 3933,
      "Ġcaused": 3934,
      "Ġgave": 3935,
      "urb": 3936,
      "Ġreflect": 3937,
      "Ġoperation": 3938,
      "ĠFalse": 3939,
      "Ġteacher": 3940,
      "Ġvoid": 3941,
      "Ġready": 3942,
      "ĠEven": 3943,
      "ĠID": 3944,
      "ĠWhere": 3945,
      "ĠHave": 3946,
      "Ġprior": 3947,
      "Ġinvestig": 3948,
      "Ġbread": 3949,
      "Ġvict": 3950,
      "Ġcomprehens": 3951,
      "bre": 3952,
      "Ġtraditional": 3953,
      "inner": 3954,
      "Ġdeli": 3955,
      "Ġexamples": 3956,
      "actions": 3957,
      "iation": 3958,
      "ĠArt": 3959,
      "Ġ/>": 3960,
      "Ġcourt": 3961,
      "():": 3962,
      "Ġdiss": 3963,
      "Ġsafety": 3964,
      "hol": 3965,
      "ox": 3966,
      "unk": 3967,
      "Ġscenari": 3968,
      "ights": 3969,
      "Ġinitializes": 3970,
      "Ġdoor": 3971,
      "ROM": 3972,
      "Ġadapt": 3973,
      "ĠAlthough": 3974,
      "Ġwouldn": 3975,
      "Ġremains": 3976,
      "Ġframe": 3977,
      "Ġheld": 3978,
      "icit": 3979,
      "okes": 3980,
      "Ġrecords": 3981,
      "icate": 3982,
      "Ġinstalled": 3983,
      "Ġdetect": 3984,
      "ĠAb": 3985,
      "ĠAcc": 3986,
      "Ġupon": 3987,
      "spe": 3988,
      "Ġmatches": 3989,
      "Ġbott": 3990,
      "Ġdefinition": 3991,
      "state": 3992,
      "Ġstatus": 3993,
      "Ġdepending": 3994,
      "Ġeconomic": 3995,
      "table": 3996,
      "Ġcele": 3997,
      "ĠUnder": 3998,
      "Ġtour": 3999,
      "Ġlif": 4000,
      "Ġfelt": 4001,
      "planation": 4002,
      "Ġmid": 4003,
      "cles": 4004,
      "Ġdogs": 4005,
      "Ġmember": 4006,
      "error": 4007,
      "bash": 4008,
      "ĠHi": 4009,
      "Ġwood": 4010,
      "::": 4011,
      "Ġestablish": 4012,
      "Ġ});": 4013,
      "Ġcultural": 4014,
      "pen": 4015,
      "Ġchance": 4016,
      "jo": 4017,
      "Ġemerg": 4018,
      "atever": 4019,
      "Ġfollowed": 4020,
      "oken": 4021,
      "ĠGenerate": 4022,
      "Ġindeed": 4023,
      "Ġdamage": 4024,
      "unt": 4025,
      "ĠDr": 4026,
      "ĠPol": 4027,
      "ĠSystem": 4028,
      "Ġinvolve": 4029,
      "ux": 4030,
      "Ġep": 4031,
      "Ġkit": 4032,
      "grad": 4033,
      "ĠMany": 4034,
      "Ġmentions": 4035,
      "Id": 4036,
      "Ġperforming": 4037,
      "uel": 4038,
      "Ġdev": 4039,
      "oub": 4040,
      "rypt": 4041,
      "fl": 4042,
      "Ġhosp": 4043,
      "ĠSm": 4044,
      "start": 4045,
      "ĠEach": 4046,
      "Ġpowerful": 4047,
      "Ġ)": 4048,
      "ishes": 4049,
      "Ġspend": 4050,
      "Ġmath": 4051,
      "ĠCould": 4052,
      "Ġguy": 4053,
      "ils": 4054,
      "Ġdaughter": 4055,
      "Ġupper": 4056,
      "ĠChinese": 4057,
      "lement": 4058,
      "Ġbur": 4059,
      "Ġmilk": 4060,
      "ha": 4061,
      "Ġconvey": 4062,
      "Ġallowing": 4063,
      "istics": 4064,
      "vis": 4065,
      "Ġprogramming": 4066,
      "32": 4067,
      "Ġspaces": 4068,
      "mosp": 4069,
      "16": 4070,
      "Ġlogical": 4071,
      "izz": 4072,
      "Ġemotional": 4073,
      "Ġhol": 4074,
      "]\\": 4075,
      "Ġalone": 4076,
      "Ġsix": 4077,
      "Ġcit": 4078,
      "process": 4079,
      "Ġchemical": 4080,
      "lier": 4081,
      "Ġreverse": 4082,
      "Ġeggs": 4083,
      "ĠRem": 4084,
      "haps": 4085,
      "Ġwasn": 4086,
      "Ġhistorical": 4087,
      "Ġchanged": 4088,
      "ĠNode": 4089,
      "Ġcheese": 4090,
      "Ġindepend": 4091,
      "Ġsil": 4092,
      "DA": 4093,
      "Ġcenter": 4094,
      "Ġpercent": 4095,
      "Ġdevice": 4096,
      "Ġmostly": 4097,
      "ashing": 4098,
      "ĠMaybe": 4099,
      "url": 4100,
      "Ġpush": 4101,
      "Ġletters": 4102,
      "Ġuniversity": 4103,
      "cel": 4104,
      "Ġtu": 4105,
      "ossible": 4106,
      "Ġsupposed": 4107,
      "yer": 4108,
      "hel": 4109,
      "ĠTV": 4110,
      "Ġsynt": 4111,
      "Ġquant": 4112,
      "Ġsquare": 4113,
      "Ġincorrect": 4114,
      "Ġcivil": 4115,
      "ĠMc": 4116,
      "bert": 4117,
      "Ġsubmit": 4118,
      "Ġcounter": 4119,
      "Ġdynam": 4120,
      "Ġbelief": 4121,
      "Ġaudience": 4122,
      "Ġpotentially": 4123,
      "Ġinfluence": 4124,
      "II": 4125,
      "Ġreasonable": 4126,
      "Ġbeginning": 4127,
      "Ġfaster": 4128,
      "Ġsell": 4129,
      "Ġwindow": 4130,
      "Ġrights": 4131,
      "Ġmount": 4132,
      "Ġpd": 4133,
      "Ġensures": 4134,
      "Ġshared": 4135,
      "off": 4136,
      "itor": 4137,
      "ĠChoose": 4138,
      "Ġsem": 4139,
      "Ġdecre": 4140,
      "Ġconsidering": 4141,
      "Ġclearly": 4142,
      "Ġfamous": 4143,
      "Ġodd": 4144,
      "Ġdepends": 4145,
      "Ġchocolate": 4146,
      "ception": 4147,
      "Ġemployees": 4148,
      "Ġfully": 4149,
      "post": 4150,
      "Ġatmosp": 4151,
      "Ġcandid": 4152,
      "ructions": 4153,
      "Ġbag": 4154,
      "Ġforms": 4155,
      "urch": 4156,
      "mas": 4157,
      "Ġaccuracy": 4158,
      "Ġcars": 4159,
      "Ġtend": 4160,
      "Ġcauses": 4161,
      "Ġcontinues": 4162,
      "llig": 4163,
      "Ġmaterials": 4164,
      "Ġupdates": 4165,
      "Ġserve": 4166,
      "ĠSun": 4167,
      "hand": 4168,
      "Ġdisco": 4169,
      "type": 4170,
      "Ġbelong": 4171,
      "[]": 4172,
      "org": 4173,
      "Ġdisplays": 4174,
      "Ġemb": 4175,
      "Ġinteract": 4176,
      "que": 4177,
      "sql": 4178,
      "Ġlaug": 4179,
      "ĠCheck": 4180,
      "Ġtelevision": 4181,
      "oad": 4182,
      "Ġnavig": 4183,
      "ios": 4184,
      "tings": 4185,
      "Ġbrother": 4186,
      "Ġadult": 4187,
      "Ġtheory": 4188,
      "cell": 4189,
      "Ġvector": 4190,
      "Ġpaid": 4191,
      "Ġbalance": 4192,
      "Ġsite": 4193,
      "Ġelectron": 4194,
      "iling": 4195,
      "ested": 4196,
      "Ġprimarily": 4197,
      "sem": 4198,
      "Ġrelease": 4199,
      "culate": 4200,
      "Ġeth": 4201,
      "band": 4202,
      "ponent": 4203,
      "Ġtf": 4204,
      "iable": 4205,
      "Ġincreased": 4206,
      "Ġign": 4207,
      "What": 4208,
      "cious": 4209,
      "Ġdemonstrates": 4210,
      "lt": 4211,
      "ctors": 4212,
      "Ġplatform": 4213,
      "Ġvisual": 4214,
      "Ġcatch": 4215,
      "inated": 4216,
      "ĠNational": 4217,
      "80": 4218,
      "Ġobv": 4219,
      "Ġstreet": 4220,
      "anish": 4221,
      "Ġroute": 4222,
      "with": 4223,
      "ĠNext": 4224,
      "Ġsklearn": 4225,
      "othing": 4226,
      "ĠEl": 4227,
      "Ġintegr": 4228,
      "Ġknew": 4229,
      "ĠPy": 4230,
      "antic": 4231,
      "Ġeyes": 4232,
      "iforn": 4233,
      "Ġclimate": 4234,
      "Ġchoices": 4235,
      "Ġfootball": 4236,
      "ĠCont": 4237,
      "ĠCent": 4238,
      "Ġsurround": 4239,
      "Ġearth": 4240,
      "Ġcrucial": 4241,
      "Ġleaving": 4242,
      "Ġmeasure": 4243,
      "Ġdress": 4244,
      "Ġremaining": 4245,
      "ĠOtherwise": 4246,
      "Ġplt": 4247,
      "Ġ<<": 4248,
      "Ġpsych": 4249,
      "ufact": 4250,
      "Ġpolicy": 4251,
      "Ġoffers": 4252,
      "Ġfrequency": 4253,
      "Ġscreen": 4254,
      "Ġmanager": 4255,
      "Ġstraight": 4256,
      "Ġsec": 4257,
      "Ġcelebr": 4258,
      "Ġheight": 4259,
      "Ġtechniques": 4260,
      "14": 4261,
      "Ġerrors": 4262,
      "Ġpet": 4263,
      "Ġclick": 4264,
      "Ġdoesnt": 4265,
      "Ġtouch": 4266,
      "Ġbasically": 4267,
      "ino": 4268,
      "ĠGet": 4269,
      "Ġflour": 4270,
      "button": 4271,
      "Ġneighbor": 4272,
      "Ġdefinitely": 4273,
      "Ġmist": 4274,
      "Ġconversation": 4275,
      "Ġdistinct": 4276,
      "ae": 4277,
      "ĠMed": 4278,
      "Ġsubstring": 4279,
      "iring": 4280,
      "ius": 4281,
      "ĠMore": 4282,
      "map": 4283,
      "Ġprices": 4284,
      "Ġspent": 4285,
      "password": 4286,
      "Ġhuge": 4287,
      "Ġattribut": 4288,
      "equ": 4289,
      "Ġinternet": 4290,
      "Ġded": 4291,
      "ĠAv": 4292,
      "Ġclassify": 4293,
      "Ġperspect": 4294,
      "ĠBar": 4295,
      "Ġund": 4296,
      "Ġgrand": 4297,
      "Ġtrust": 4298,
      "Ġvill": 4299,
      "Ġcausing": 4300,
      "flow": 4301,
      "Ġprojects": 4302,
      "product": 4303,
      "Ġupdated": 4304,
      "Ġexpensive": 4305,
      "ĠStud": 4306,
      "ifornia": 4307,
      "Ġcombination": 4308,
      "Ġfra": 4309,
      "Ġtesting": 4310,
      "Ġthrow": 4311,
      "Ġthoughts": 4312,
      "ici": 4313,
      "Ġque": 4314,
      "Ġpresence": 4315,
      "ecause": 4316,
      "64": 4317,
      "Ġsports": 4318,
      "press": 4319,
      "ief": 4320,
      "Ġalthough": 4321,
      "Ġmoved": 4322,
      "ĠTra": 4323,
      "Ġmovement": 4324,
      "Ġgender": 4325,
      "nal": 4326,
      "Ġanaly": 4327,
      "Ġrain": 4328,
      "ened": 4329,
      "Ġir": 4330,
      "Ġflat": 4331,
      "java": 4332,
      "Ġang": 4333,
      "Ġpieces": 4334,
      "iverse": 4335,
      "Ġdefines": 4336,
      "ĠVal": 4337,
      "Ġintellig": 4338,
      "ĠPremise": 4339,
      "Ġfavorite": 4340,
      "atory": 4341,
      "Ġgather": 4342,
      "Ġdrop": 4343,
      "ĠHer": 4344,
      "ĠJan": 4345,
      "Ġdecide": 4346,
      "Ġphysics": 4347,
      "ĠFROM": 4348,
      "Ġhop": 4349,
      "cks": 4350,
      "ĠCompare": 4351,
      "Ġmeeting": 4352,
      "Ġacademic": 4353,
      "Ġhab": 4354,
      "Ġexplicit": 4355,
      "chen": 4356,
      "99": 4357,
      "False": 4358,
      "zz": 4359,
      "');": 4360,
      "ĠGreat": 4361,
      "change": 4362,
      "ĠCO": 4363,
      "mark": 4364,
      "Ġcritic": 4365,
      "Ġimportance": 4366,
      "xygen": 4367,
      "Ġappli": 4368,
      "Ġbeautiful": 4369,
      "Ġreference": 4370,
      "Ġwaste": 4371,
      "Ġclause": 4372,
      "ĠGoogle": 4373,
      "Ġindicate": 4374,
      "Ġsurpr": 4375,
      "which": 4376,
      "atically": 4377,
      "Ġalign": 4378,
      "ĠGre": 4379,
      "Ġtells": 4380,
      "Ġaim": 4381,
      "Ġdiet": 4382,
      "Ġmut": 4383,
      "Ġvirt": 4384,
      "ky": 4385,
      "Ġwhatever": 4386,
      "Ġdeveloped": 4387,
      "care": 4388,
      "cut": 4389,
      "Ġtone": 4390,
      "Ġsav": 4391,
      "Ġlogic": 4392,
      "versed": 4393,
      "aper": 4394,
      "yond": 4395,
      "Ġrace": 4396,
      "ĠGod": 4397,
      "Ġrespond": 4398,
      "Ġsecret": 4399,
      "Ġfinally": 4400,
      "Ġadmin": 4401,
      "Ġ},": 4402,
      "Ġwondering": 4403,
      "He": 4404,
      "pat": 4405,
      "Ġdoll": 4406,
      "Ġluck": 4407,
      "gener": 4408,
      "roid": 4409,
      "Ġsitting": 4410,
      "Ġworse": 4411,
      "Ġsuitable": 4412,
      "orage": 4413,
      "Ġcommonly": 4414,
      "mission": 4415,
      "Ġlayers": 4416,
      "Ġhaven": 4417,
      "ĠIndian": 4418,
      "Ġcast": 4419,
      "Ġadvant": 4420,
      "Ġolder": 4421,
      "ln": 4422,
      "ica": 4423,
      "Ġserves": 4424,
      "Ġnucle": 4425,
      "aker": 4426,
      "Ġlimited": 4427,
      "Ġcontract": 4428,
      "Ġencounter": 4429,
      "rics": 4430,
      "Ġmur": 4431,
      "Ġachie": 4432,
      "Ġphrases": 4433,
      "Ġstores": 4434,
      "Ġrespectively": 4435,
      "Ġdepartment": 4436,
      "email": 4437,
      "Ġprompt": 4438,
      "rible": 4439,
      "Ġleaves": 4440,
      "Ġexisting": 4441,
      "Ġbri": 4442,
      "aming": 4443,
      "ĠDjango": 4444,
      "da": 4445,
      "ĠHouse": 4446,
      "!\"": 4447,
      "au": 4448,
      "isions": 4449,
      "Ġserious": 4450,
      "nAfter": 4451,
      "Ġproperly": 4452,
      "Ġinternational": 4453,
      "oking": 4454,
      "Ġprograms": 4455,
      "Cont": 4456,
      "writ": 4457,
      "known": 4458,
      "Ġhus": 4459,
      "Ġprinci": 4460,
      "ym": 4461,
      "ĠUser": 4462,
      "Ġhonest": 4463,
      "ership": 4464,
      "idden": 4465,
      "Ġwalking": 4466,
      "ancy": 4467,
      "Ġlots": 4468,
      "Ġrich": 4469,
      "Ġtruth": 4470,
      "anch": 4471,
      "Ġvia": 4472,
      "indrome": 4473,
      "Ġengineers": 4474,
      "ĠAct": 4475,
      "irus": 4476,
      "ĠChar": 4477,
      "Ġrelationships": 4478,
      "aked": 4479,
      "Ġconcerns": 4480,
      "ĠState": 4481,
      "Ġflu": 4482,
      "Ġreact": 4483,
      "Ġsand": 4484,
      "ald": 4485,
      "Ġscientific": 4486,
      "ĠBecause": 4487,
      "Ġsubt": 4488,
      "This": 4489,
      "ĠSet": 4490,
      "Ġscene": 4491,
      "Ġkilled": 4492,
      "Ġrender": 4493,
      "ĠFlask": 4494,
      "ĠOf": 4495,
      "ĠGerman": 4496,
      "Ġsweet": 4497,
      "100": 4498,
      "Ġconsequ": 4499,
      "Ġinsurance": 4500,
      "ĠDuring": 4501,
      "Ġreceive": 4502,
      "Ġcarbon": 4503,
      "Ġdriving": 4504,
      "Ġbow": 4505,
      "imens": 4506,
      "Ġcommunication": 4507,
      "cast": 4508,
      "iver": 4509,
      "Ġeye": 4510,
      "edy": 4511,
      "orks": 4512,
      "inations": 4513,
      "bl": 4514,
      "what": 4515,
      "Ġadvance": 4516,
      "Ġengage": 4517,
      "ĠAustral": 4518,
      "arian": 4519,
      "Ġviews": 4520,
      "Ġslightly": 4521,
      "ov": 4522,
      "Ġfinds": 4523,
      "dat": 4524,
      "ĠEngine": 4525,
      "Ġsignificantly": 4526,
      "Ġheavy": 4527,
      "ipe": 4528,
      "Ġsimpl": 4529,
      "ĠIntern": 4530,
      "cience": 4531,
      "angle": 4532,
      "Ġ['": 4533,
      "Ġlinked": 4534,
      "NN": 4535,
      "Ġstage": 4536,
      "Ġexercise": 4537,
      "enty": 4538,
      "Ġliqu": 4539,
      "Ġmanufact": 4540,
      "Ġexists": 4541,
      "ĠGP": 4542,
      "next": 4543,
      "ĠCalifornia": 4544,
      "gal": 4545,
      "ĠHypothesis": 4546,
      "ĠEuropean": 4547,
      "IT": 4548,
      "ĠJack": 4549,
      "Ġguid": 4550,
      "Ġsample": 4551,
      "iles": 4552,
      "Ġseeing": 4553,
      "csv": 4554,
      "Ġdisease": 4555,
      "Class": 4556,
      "Ġdaily": 4557,
      "()\\": 4558,
      "ĠAir": 4559,
      "orch": 4560,
      "ERE": 4561,
      "code": 4562,
      "Number": 4563,
      "Ġdemand": 4564,
      "Ġdied": 4565,
      "Ġrend": 4566,
      "Ġscale": 4567,
      "Sub": 4568,
      "doc": 4569,
      "ĠTw": 4570,
      "tes": 4571,
      "Ġsales": 4572,
      "AS": 4573,
      "Ġtables": 4574,
      "Ġrepresenting": 4575,
      "iter": 4576,
      "Ġreligious": 4577,
      "Ġlanguages": 4578,
      "Ġcomments": 4579,
      "ĠDav": 4580,
      "frame": 4581,
      "40": 4582,
      "!!": 4583,
      "Ġesc": 4584,
      "erve": 4585,
      "Ġbul": 4586,
      "Ġbrought": 4587,
      "Ġfeet": 4588,
      "loc": 4589,
      "Ġactive": 4590,
      "istance": 4591,
      "Ġsolid": 4592,
      "Ġatmosphere": 4593,
      "ondon": 4594,
      "essage": 4595,
      "Ġiteration": 4596,
      "pping": 4597,
      "ES": 4598,
      "cket": 4599,
      "Ġtrees": 4600,
      "ĠDep": 4601,
      "Ġdangerous": 4602,
      "Ġ60": 4603,
      "Ġsympt": 4604,
      "uration": 4605,
      "ĠOK": 4606,
      "itter": 4607,
      "Ġoven": 4608,
      "Ġbatter": 4609,
      "Ġcosts": 4610,
      "ret": 4611,
      "bing": 4612,
      "Ġnovel": 4613,
      "Ġinsert": 4614,
      "force": 4615,
      "Ġtrip": 4616,
      "Int": 4617,
      "Ġgoals": 4618,
      "ĠDataFrame": 4619,
      "bar": 4620,
      "Ġpoll": 4621,
      "ene": 4622,
      "Ġwild": 4623,
      "Ġsalary": 4624,
      "hr": 4625,
      "No": 4626,
      "Ġproduced": 4627,
      "items": 4628,
      "To": 4629,
      "sure": 4630,
      "Ġcontinu": 4631,
      "ager": 4632,
      "Ġprocesses": 4633,
      "ribution": 4634,
      "Ġactivation": 4635,
      "Ġchallenges": 4636,
      "orrow": 4637,
      "Ġturned": 4638,
      "Ġtrig": 4639,
      "Ġprec": 4640,
      "oting": 4641,
      "cohol": 4642,
      "Ġcities": 4643,
      "Ġplayers": 4644,
      "ĠAnother": 4645,
      "Ġpython": 4646,
      "Ġcritical": 4647,
      "Ġstyles": 4648,
      "raft": 4649,
      "ĠMus": 4650,
      "ffic": 4651,
      "ban": 4652,
      "Ġwest": 4653,
      "An": 4654,
      "Ġfed": 4655,
      "kes": 4656,
      "Ġfeelings": 4657,
      "ography": 4658,
      "Ġcalculated": 4659,
      "Ġreve": 4660,
      "Ġglass": 4661,
      "Ġbud": 4662,
      "45": 4663,
      "abet": 4664,
      "Ġcopy": 4665,
      "Ġserved": 4666,
      "isms": 4667,
      "from": 4668,
      "Ġimages": 4669,
      "Ġnotice": 4670,
      "Ġpull": 4671,
      "rupt": 4672,
      "ĠShould": 4673,
      "Ġearlier": 4674,
      "Ġraise": 4675,
      "zer": 4676,
      "13": 4677,
      "Ġbought": 4678,
      "ĠSom": 4679,
      "Ġhospital": 4680,
      "fig": 4681,
      "Ġfemale": 4682,
      "Ġdespite": 4683,
      "17": 4684,
      "TP": 4685,
      "Ġqual": 4686,
      "Ġcrime": 4687,
      "Ġfro": 4688,
      "Ġguys": 4689,
      "Ġstrength": 4690,
      "Ġresponsib": 4691,
      "Ġsection": 4692,
      "Ġfetch": 4693,
      "lands": 4694,
      "illa": 4695,
      "Pr": 4696,
      "Ġwrote": 4697,
      "ĠJapanese": 4698,
      "Ġremoved": 4699,
      "Ġstories": 4700,
      "oding": 4701,
      "ords": 4702,
      "field": 4703,
      "plate": 4704,
      "NA": 4705,
      "Ġple": 4706,
      "Ġtreatment": 4707,
      "Ġoxygen": 4708,
      "Ġsummer": 4709,
      "Ġround": 4710,
      "ĠCor": 4711,
      "asc": 4712,
      "Ġjump": 4713,
      "ĠNOT": 4714,
      "ĠMin": 4715,
      "Ġcredit": 4716,
      "Ġkeys": 4717,
      "ĠDem": 4718,
      "exic": 4719,
      "aign": 4720,
      "Ġhyd": 4721,
      "Ġtick": 4722,
      "Ġminor": 4723,
      "Ġwatching": 4724,
      "Ġrule": 4725,
      "ĠFind": 4726,
      "zing": 4727,
      "Ġultimately": 4728,
      "Ġrice": 4729,
      "Ġdie": 4730,
      "rate": 4731,
      "Ġfunny": 4732,
      "Ġpositions": 4733,
      "Ġattract": 4734,
      "lines": 4735,
      "Ġder": 4736,
      "Ġpen": 4737,
      "Ġwhose": 4738,
      "BC": 4739,
      "aul": 4740,
      "Ġduplic": 4741,
      "nprint": 4742,
      "Ġmajority": 4743,
      "ĠHello": 4744,
      "Ġvac": 4745,
      "Ġtrouble": 4746,
      "Ġrot": 4747,
      "lor": 4748,
      "ĠSum": 4749,
      "].": 4750,
      "acing": 4751,
      "ĠMich": 4752,
      "Ġtranslation": 4753,
      "Ġlawyer": 4754,
      "sk": 4755,
      "pire": 4756,
      "Ġshown": 4757,
      "related": 4758,
      "rem": 4759,
      "Ġwish": 4760,
      "ugg": 4761,
      "Ġcollection": 4762,
      "nS": 4763,
      "ĠTrans": 4764,
      "Ġpublished": 4765,
      "Ġwear": 4766,
      "ĠUK": 4767,
      "Ġlaws": 4768,
      "Ġstack": 4769,
      "Ġmedic": 4770,
      "Ġhusband": 4771,
      "ĠSub": 4772,
      "Ġspir": 4773,
      "OR": 4774,
      "Ġaf": 4775,
      "aten": 4776,
      "**:": 4777,
      "usion": 4778,
      "overed": 4779,
      "query": 4780,
      "Ġnumerous": 4781,
      "range": 4782,
      "ĠLike": 4783,
      "Ġbound": 4784,
      "Ġdirection": 4785,
      "part": 4786,
      "Ġholding": 4787,
      "Ġopportunity": 4788,
      "ession": 4789,
      "Ġdro": 4790,
      "Ġaccident": 4791,
      "Ġtests": 4792,
      "Ġbeyond": 4793,
      "ĠGree": 4794,
      "Ġsnow": 4795,
      "Ġcriteria": 4796,
      "apers": 4797,
      "Ġgenerates": 4798,
      "ĠEvery": 4799,
      "mp": 4800,
      "itect": 4801,
      "req": 4802,
      "ĠMod": 4803,
      "Ġrid": 4804,
      "ĠLast": 4805,
      "Ġregarding": 4806,
      "Ġemotions": 4807,
      "Ġassume": 4808,
      "Ġapplications": 4809,
      "Ġbroken": 4810,
      "db": 4811,
      "Ġchanging": 4812,
      "Ġclub": 4813,
      "Ġflag": 4814,
      "ĠRec": 4815,
      "trans": 4816,
      "Ġlose": 4817,
      "ĠForm": 4818,
      "ooth": 4819,
      "Ġcouldn": 4820,
      "Ġsituations": 4821,
      "rig": 4822,
      "Please": 4823,
      "Ġfoods": 4824,
      "ĠSELECT": 4825,
      "box": 4826,
      "((": 4827,
      "Ġcontribute": 4828,
      "nW": 4829,
      "Ġinner": 4830,
      "Ġcomparison": 4831,
      "Ġvoice": 4832,
      "Ġdidnt": 4833,
      "Ġclar": 4834,
      "left": 4835,
      "Ġwilling": 4836,
      "Ġpicture": 4837,
      "omen": 4838,
      "airs": 4839,
      "tem": 4840,
      "Ġcookies": 4841,
      "ĠMexic": 4842,
      "ĠStar": 4843,
      "ĠName": 4844,
      "Ġbottom": 4845,
      "Ġfinish": 4846,
      "ĠList": 4847,
      "ĠAg": 4848,
      "Ġ21": 4849,
      "60": 4850,
      "ĠChristmas": 4851,
      "Ġfaith": 4852,
      "itation": 4853,
      "Ġalph": 4854,
      "Ġgold": 4855,
      "Ġsuccessfully": 4856,
      "ĠYeah": 4857,
      "Ġtips": 4858,
      "Ġstanding": 4859,
      "ĠInstead": 4860,
      "Ġpopul": 4861,
      "Ġcentral": 4862,
      "Th": 4863,
      "ĠLondon": 4864,
      "ĠSpanish": 4865,
      "Ġentertain": 4866,
      "Ġoptimize": 4867,
      "predict": 4868,
      "run": 4869,
      "Ġye": 4870,
      "ĠAccording": 4871,
      "Ġnecessarily": 4872,
      "Ġmale": 4873,
      "rough": 4874,
      "Qu": 4875,
      "iam": 4876,
      "acity": 4877,
      "Ġrent": 4878,
      "Ġforces": 4879,
      "Ġtheyre": 4880,
      "Ġthous": 4881,
      "Ġvote": 4882,
      "Ġdecor": 4883,
      "ĠOk": 4884,
      "tra": 4885,
      "Ġsongs": 4886,
      "Ġbecoming": 4887,
      "Ġsymptoms": 4888,
      "def": 4889,
      "__(": 4890,
      "Ġplanning": 4891,
      "lim": 4892,
      "idents": 4893,
      "Ġcategories": 4894,
      "Ġartist": 4895,
      "IM": 4896,
      "Ġguide": 4897,
      "Ġlooked": 4898,
      "ĠEngland": 4899,
      "Ġconcepts": 4900,
      "Ġabsolutely": 4901,
      "Ġtemp": 4902,
      "iny": 4903,
      "alian": 4904,
      "ĠRoman": 4905,
      "Ġoppos": 4906,
      "long": 4907,
      "mm": 4908,
      "Mod": 4909,
      "App": 4910,
      "ĠTest": 4911,
      "Ġmultip": 4912,
      "Ġplays": 4913,
      "Ġsexual": 4914,
      "Ġclassification": 4915,
      "Ġorganization": 4916,
      "println": 4917,
      "Ġpossibly": 4918,
      "host": 4919,
      "page": 4920,
      "Ġpy": 4921,
      "Ġcampaign": 4922,
      "px": 4923,
      "herent": 4924,
      "Ġprep": 4925,
      "Ġmotiv": 4926,
      "ĠComp": 4927,
      "iciency": 4928,
      "Ġcolors": 4929,
      "Ġzero": 4930,
      "Ġidentity": 4931,
      "Ġroll": 4932,
      "Ġcitiz": 4933,
      "My": 4934,
      "hib": 4935,
      "ĠIll": 4936,
      "Ġhate": 4937,
      "ĠWind": 4938,
      "';\\": 4939,
      "Ġmel": 4940,
      "Ġdrug": 4941,
      ",\"": 4942,
      "object": 4943,
      "opher": 4944,
      "Ġshoot": 4945,
      "ordin": 4946,
      ":**": 4947,
      "Ġemployee": 4948,
      "using": 4949,
      "Ġalcohol": 4950,
      "nconst": 4951,
      "22": 4952,
      ".\"\"?": 4953,
      "Ġclient": 4954,
      "hent": 4955,
      "uary": 4956,
      "ĠFurther": 4957,
      "Ġpotat": 4958,
      "plotlib": 4959,
      "can": 4960,
      "while": 4961,
      "Ġjourney": 4962,
      "Ġvegetables": 4963,
      "Ġsuggestions": 4964,
      "Ġuniverse": 4965,
      "Ġrare": 4966,
      "ship": 4967,
      "Ġgone": 4968,
      "Ġdestro": 4969,
      "Type": 4970,
      "Ġmill": 4971,
      "top": 4972,
      "Ġthus": 4973,
      "ĠBlack": 4974,
      "Ġkeeping": 4975,
      "ĠUnderstand": 4976,
      "Ġpatterns": 4977,
      "lock": 4978,
      "Ġfeels": 4979,
      "ixt": 4980,
      "Ġenh": 4981,
      "ĠEd": 4982,
      "ĠOpen": 4983,
      "Ġunivers": 4984,
      "Ġ????": 4985,
      "\"\":": 4986,
      "oon": 4987,
      "Ġunit": 4988,
      "Ġschools": 4989,
      "ĠTitle": 4990,
      "Ġfig": 4991,
      "Ġconfig": 4992,
      "ĠDefine": 4993,
      "ĠOverall": 4994,
      "Ġlearned": 4995,
      "Ġcancer": 4996,
      "Ġmer": 4997,
      "Ġmetal": 4998,
      "ĠKore": 4999,
      "Ġtransportation": 5000,
      "En": 5001,
      "Ġhook": 5002,
      "gn": 5003,
      "ĠIndia": 5004,
      "ĠIr": 5005,
      "Ġdetail": 5006,
      "node": 5007,
      "Ġexpert": 5008,
      "wood": 5009,
      "())": 5010,
      "Ġadminist": 5011,
      "Ġcertainly": 5012,
      "Ġresolve": 5013,
      "Ġhighlights": 5014,
      "Ġgrowing": 5015,
      "Ġanx": 5016,
      "Ġruns": 5017,
      "Ġbill": 5018,
      "icon": 5019,
      "Ġreality": 5020,
      "Ġborder": 5021,
      "this": 5022,
      "lin": 5023,
      "Ġalternative": 5024,
      "ipment": 5025,
      "Ġapplied": 5026,
      "ancing": 5027,
      "Ġoccurs": 5028,
      "Ġincome": 5029,
      "Ġensuring": 5030,
      "Ġban": 5031,
      "Ġgraph": 5032,
      "Ġtheme": 5033,
      "Ġfruit": 5034,
      "Ġsmart": 5035,
      "Ġattributes": 5036,
      "Ġdivisible": 5037,
      "Ġarrays": 5038,
      "Ġimpossible": 5039,
      "Ġfloor": 5040,
      "Ġvary": 5041,
      "But": 5042,
      "ĠHol": 5043,
      "Ġ22": 5044,
      "HERE": 5045,
      "vation": 5046,
      "Ġmob": 5047,
      "Ġtrained": 5048,
      "Ġincred": 5049,
      "ingu": 5050,
      "Ġbeg": 5051,
      "Ã¢": 5052,
      "Ġstaff": 5053,
      "ĠRet": 5054,
      "Ġafford": 5055,
      "how": 5056,
      "ĠBat": 5057,
      "Ġbreath": 5058,
      "Ġplanet": 5059,
      "fortun": 5060,
      "OST": 5061,
      "Ġ()": 5062,
      "pected": 5063,
      "Ġtransfer": 5064,
      "erate": 5065,
      "ĠJames": 5066,
      "iliar": 5067,
      "Ġclaims": 5068,
      "Ġscenario": 5069,
      "izations": 5070,
      "Ġschedu": 5071,
      "Ġrelax": 5072,
      "ĠPark": 5073,
      "Ġsoup": 5074,
      "Ġfarm": 5075,
      "Ġarchitect": 5076,
      "Ġhous": 5077,
      "Ind": 5078,
      "example": 5079,
      "Ġvoc": 5080,
      "Ġforest": 5081,
      "Element": 5082,
      "Ġequival": 5083,
      "Ġputting": 5084,
      "Ġautomatically": 5085,
      "Ġrepresentation": 5086,
      "Ġperspective": 5087,
      "cho": 5088,
      "Ġstd": 5089,
      "Ġlogg": 5090,
      "Ġbrows": 5091,
      "Ġchart": 5092,
      "().": 5093,
      "Ġentity": 5094,
      "Col": 5095,
      "lar": 5096,
      "Ġengaging": 5097,
      "function": 5098,
      "Ġsouth": 5099,
      "Ġexpand": 5100,
      "ek": 5101,
      "Ġbot": 5102,
      "Ġhelped": 5103,
      "ĠBo": 5104,
      "ael": 5105,
      "sm": 5106,
      "join": 5107,
      "omb": 5108,
      "ĠProv": 5109,
      "ĠTheir": 5110,
      "Ġsister": 5111,
      "Ġisnt": 5112,
      "Ġsea": 5113,
      "Ġstudies": 5114,
      "Ġmiles": 5115,
      "comp": 5116,
      "Ġboss": 5117,
      "Ġdough": 5118,
      "Ġdriver": 5119,
      "nThen": 5120,
      "Ġfacts": 5121,
      "term": 5122,
      "works": 5123,
      "Ġsevere": 5124,
      "Ġjoin": 5125,
      "Ġplans": 5126,
      "ĠReg": 5127,
      "Ġcomfortable": 5128,
      "rical": 5129,
      "Ġcore": 5130,
      "odies": 5131,
      "Ġonto": 5132,
      "Ġcarry": 5133,
      "ĠHead": 5134,
      "Ġtrick": 5135,
      "Ġokay": 5136,
      "orge": 5137,
      "Ġconsistent": 5138,
      ">\\": 5139,
      "otion": 5140,
      "Ġfilms": 5141,
      "Ġwidth": 5142,
      "ops": 5143,
      "ĠNet": 5144,
      "SQL": 5145,
      "Ġcontrast": 5146,
      "ĠMat": 5147,
      "Ġclim": 5148,
      "Ġpeace": 5149,
      "level": 5150,
      "porary": 5151,
      "Ġearn": 5152,
      "Ġcharge": 5153,
      "Ġrelatively": 5154,
      "Ġapprox": 5155,
      "Ġsubsequ": 5156,
      "ĠDespite": 5157,
      "eds": 5158,
      "Ġworkers": 5159,
      "lder": 5160,
      "Ġprocessing": 5161,
      "ham": 5162,
      "Ġflex": 5163,
      "ĠWhite": 5164,
      "ĠFrance": 5165,
      "Ġbath": 5166,
      "Ġorders": 5167,
      "Ġremind": 5168,
      "Ġexperiment": 5169,
      "Ġanti": 5170,
      "John": 5171,
      "anging": 5172,
      "Ġbrand": 5173,
      "Ġfear": 5174,
      "....": 5175,
      "Ġeconomy": 5176,
      "Ġspeech": 5177,
      "}>": 5178,
      "Ġconduct": 5179,
      "hemat": 5180,
      "Ġexecuting": 5181,
      "Ġweap": 5182,
      "Ġmodified": 5183,
      "ĠLook": 5184,
      "ustomer": 5185,
      "Ġdegrees": 5186,
      "Ġnorth": 5187,
      "Ġkitchen": 5188,
      "ĠâĢ": 5189,
      "Ġancient": 5190,
      "Ġentirely": 5191,
      "Ġ23": 5192,
      "ilies": 5193,
      "Ġdelic": 5194,
      "Ġamb": 5195,
      "Ġmagn": 5196,
      "Ġsick": 5197,
      "Ġdecisions": 5198,
      "dis": 5199,
      "Ġdisapp": 5200,
      "root": 5201,
      "elines": 5202,
      "undred": 5203,
      "rial": 5204,
      "Ġconfirm": 5205,
      "ĠRussian": 5206,
      "cons": 5207,
      "uable": 5208,
      "Ġunf": 5209,
      "ibr": 5210,
      "Ġleads": 5211,
      "uated": 5212,
      "Ġcontinued": 5213,
      "build": 5214,
      "ustain": 5215,
      "icing": 5216,
      "Ġexperienced": 5217,
      "azing": 5218,
      "Ġfocused": 5219,
      "Ġpool": 5220,
      "Ġchecking": 5221,
      "iers": 5222,
      "Ġmusical": 5223,
      "coming": 5224,
      "gment": 5225,
      "ady": 5226,
      "Ġnested": 5227,
      "Ġwat": 5228,
      "Ġvehicle": 5229,
      "rew": 5230,
      "Ġexplicitly": 5231,
      "sia": 5232,
      "Ġdevices": 5233,
      "gy": 5234,
      "lies": 5235,
      "Ġnuclear": 5236,
      "Ġexecute": 5237,
      "Ġdisplayed": 5238,
      "Ġfactor": 5239,
      "Ġreducing": 5240,
      "Ġmeant": 5241,
      "ĠPost": 5242,
      "Ġreversed": 5243,
      "Ġvan": 5244,
      "uries": 5245,
      "ĠUsing": 5246,
      "sorted": 5247,
      "first": 5248,
      "Ġreaction": 5249,
      "Ġwidely": 5250,
      "Ġexplore": 5251,
      "Em": 5252,
      "alt": 5253,
      "encing": 5254,
      "Ġhappening": 5255,
      "Ġreplaced": 5256,
      "Ġshot": 5257,
      "format": 5258,
      "Ġteaching": 5259,
      "Ġcart": 5260,
      "Ġunless": 5261,
      "args": 5262,
      "Ġroles": 5263,
      "Ġbrief": 5264,
      "apping": 5265,
      "write": 5266,
      "Ġju": 5267,
      "ĠCU": 5268,
      "Ġmicro": 5269,
      "Ġkept": 5270,
      "Ġtoken": 5271,
      "AL": 5272,
      "ULL": 5273,
      "phone": 5274,
      "Ġendpoint": 5275,
      "Ġvictim": 5276,
      "ĠII": 5277,
      "Value": 5278,
      "Ġmeets": 5279,
      "ĠTwo": 5280,
      "Form": 5281,
      "Ġcaught": 5282,
      "ris": 5283,
      "Ġdial": 5284,
      "Ġopportunities": 5285,
      "ĠTom": 5286,
      "Ġintended": 5287,
      "33": 5288,
      "Ġacid": 5289,
      "Ġliquid": 5290,
      "Ġasks": 5291,
      "Ġdinner": 5292,
      "https": 5293,
      "Ġinstr": 5294,
      "Ġknows": 5295,
      "Ġmodules": 5296,
      "ashington": 5297,
      "raid": 5298,
      "ĠTensor": 5299,
      "Ġstation": 5300,
      "Ġrecommended": 5301,
      "arp": 5302,
      "Ġnearly": 5303,
      "Ġapart": 5304,
      "ĠEast": 5305,
      "ĠItalian": 5306,
      "Ġformed": 5307,
      "script": 5308,
      "Ġhelping": 5309,
      "Ġpu": 5310,
      "ĠThus": 5311,
      "Ġcomplain": 5312,
      "Ġvirtual": 5313,
      "Ġpredictions": 5314,
      "nR": 5315,
      "aled": 5316,
      "Ġ<=": 5317,
      "ongo": 5318,
      "Ġseconds": 5319,
      "Ġjokes": 5320,
      "Ġprofessor": 5321,
      "Ġyoull": 5322,
      "Ġlisten": 5323,
      "Ġequipment": 5324,
      "Ġhy": 5325,
      "Ġapartment": 5326,
      "ĠHum": 5327,
      "olved": 5328,
      "Ġmanner": 5329,
      "Ġfilled": 5330,
      "Ġpurchase": 5331,
      "icated": 5332,
      "inger": 5333,
      "house": 5334,
      "include": 5335,
      "Ġlived": 5336,
      "Ġequivalent": 5337,
      "ĠSuper": 5338,
      "Ġcircum": 5339,
      "Ġswitch": 5340,
      "Ġbuying": 5341,
      "Ġvs": 5342,
      "create": 5343,
      "Ġleader": 5344,
      "ĠHel": 5345,
      "Ġtelling": 5346,
      "ĠVer": 5347,
      "ĠAc": 5348,
      "Ġmode": 5349,
      "ĠMark": 5350,
      "ĠBel": 5351,
      "nums": 5352,
      "Al": 5353,
      "User": 5354,
      "imize": 5355,
      "output": 5356,
      "ĠStart": 5357,
      "http": 5358,
      "Ġmeal": 5359,
      "osy": 5360,
      "Ġrap": 5361,
      "Ġmaintaining": 5362,
      "ifying": 5363,
      "Ġvacc": 5364,
      "Ġinterpret": 5365,
      "Ġstars": 5366,
      "Ġposts": 5367,
      "rated": 5368,
      "Ġessentially": 5369,
      "ATE": 5370,
      "zen": 5371,
      "Ġ);": 5372,
      "Ġsmooth": 5373,
      "ource": 5374,
      "ned": 5375,
      "Ġperhaps": 5376,
      "Ġbenefit": 5377,
      "Ġcris": 5378,
      "Ġtrade": 5379,
      "ternal": 5380,
      "Ġestablished": 5381,
      "Ġmouth": 5382,
      "Ġapplying": 5383,
      "ĠOur": 5384,
      "Ġends": 5385,
      "Ġselected": 5386,
      "Ġvirus": 5387,
      "Ġafraid": 5388,
      "ĠAlex": 5389,
      "ionally": 5390,
      "ĠThats": 5391,
      "Ġrepeated": 5392,
      "ĠMary": 5393,
      "Ġmessages": 5394,
      "ev": 5395,
      "Ġwealth": 5396,
      "Ġcontainer": 5397,
      "ado": 5398,
      "ĠCur": 5399,
      "Ġtit": 5400,
      "Ġsen": 5401,
      "Ġshopping": 5402,
      "Ġradio": 5403,
      "arg": 5404,
      "ented": 5405,
      "Ġcred": 5406,
      "Ġnoticed": 5407,
      "Ġintelligence": 5408,
      "la": 5409,
      "ĠAnt": 5410,
      "life": 5411,
      "Ġliterally": 5412,
      "Ġnumer": 5413,
      "Ġtopics": 5414,
      "Ġgrav": 5415,
      "ambda": 5416,
      "Ġgard": 5417,
      "sear": 5418,
      "21": 5419,
      "iant": 5420,
      "izza": 5421,
      "Ġplaced": 5422,
      "Ġcollabor": 5423,
      "Ġended": 5424,
      "craft": 5425,
      "Ġinitially": 5426,
      "eless": 5427,
      "Ġmarried": 5428,
      "pace": 5429,
      "Ġcurious": 5430,
      "roc": 5431,
      "ĠAug": 5432,
      "`).": 5433,
      "oper": 5434,
      "Ġpaying": 5435,
      "Ġabsor": 5436,
      "nEx": 5437,
      "Ġforeign": 5438,
      "Ġast": 5439,
      "ĠWashington": 5440,
      "Ġdiscussion": 5441,
      "Ġrespective": 5442,
      "Ġevaluate": 5443,
      "cellent": 5444,
      "Ġspot": 5445,
      "Ġconnected": 5446,
      "Ġdirector": 5447,
      "rc": 5448,
      "Ġformula": 5449,
      "Ġocean": 5450,
      "Ġaccurately": 5451,
      "Ġneut": 5452,
      "ĠAmericans": 5453,
      "Ġcooked": 5454,
      "true": 5455,
      "Ġviolence": 5456,
      "Ġhundred": 5457,
      "ĠCanada": 5458,
      "Ġ80": 5459,
      "Ġstorage": 5460,
      "Ġneural": 5461,
      "osen": 5462,
      "Ġshap": 5463,
      "Ġtheres": 5464,
      "Ġrise": 5465,
      "____": 5466,
      "env": 5467,
      "Ġ28": 5468,
      "Ġec": 5469,
      "Ġconsists": 5470,
      "ĠSan": 5471,
      "Ġsecure": 5472,
      "Ġwaiting": 5473,
      "Ġincorpor": 5474,
      "Ġmaster": 5475,
      "uis": 5476,
      "Ġ32": 5477,
      "pril": 5478,
      "Ġshit": 5479,
      "Ġkinds": 5480,
      "Ġ`.": 5481,
      "Ġspeaking": 5482,
      "Ġ!=": 5483,
      "Ġath": 5484,
      "api": 5485,
      "Ġcarefully": 5486,
      "Ġconstruction": 5487,
      "CH": 5488,
      "ĠNum": 5489,
      "Ġjournal": 5490,
      "itar": 5491,
      "nInside": 5492,
      "current": 5493,
      "Ġchain": 5494,
      "values": 5495,
      "Ġincrement": 5496,
      "Ġtranslated": 5497,
      "Ġclothes": 5498,
      "Ġflav": 5499,
      "iety": 5500,
      "uda": 5501,
      "Res": 5502,
      "valid": 5503,
      "Ġiron": 5504,
      "Ġopening": 5505,
      "Ġsoil": 5506,
      "Ġefforts": 5507,
      "Ġhurt": 5508,
      "bin": 5509,
      "mar": 5510,
      "Ġconsequences": 5511,
      "Ġille": 5512,
      "Ġsupports": 5513,
      "ds": 5514,
      "Ġplastic": 5515,
      "cknow": 5516,
      "Ġcoast": 5517,
      "ĠOct": 5518,
      "nPlease": 5519,
      "ĠChristian": 5520,
      "Ġpron": 5521,
      "Ġsmell": 5522,
      "local": 5523,
      "check": 5524,
      "OS": 5525,
      "ey": 5526,
      "Ġtruly": 5527,
      "Ġworried": 5528,
      "Ġmole": 5529,
      "Ġreported": 5530,
      "Ġdrugs": 5531,
      "rs": 5532,
      "Ġlowercase": 5533,
      "Ġton": 5534,
      "ĠGermany": 5535,
      "Ġswim": 5536,
      "Ġ90": 5537,
      "Ġcomplic": 5538,
      "Ġtast": 5539,
      "oted": 5540,
      "Ġshowing": 5541,
      "Ġperformed": 5542,
      "Ġseek": 5543,
      "Ġdoub": 5544,
      "ĠReview": 5545,
      "Ġpresented": 5546,
      "?\"": 5547,
      "Ġreviews": 5548,
      "ptember": 5549,
      "Ġarticles": 5550,
      "Ġfloat": 5551,
      "outhern": 5552,
      "Ġnation": 5553,
      "Ġwinter": 5554,
      "Ġlinear": 5555,
      "Ġfunctionality": 5556,
      "ners": 5557,
      "Ġrac": 5558,
      "Ġappreciate": 5559,
      "itute": 5560,
      "Ġadvanced": 5561,
      "Ġacting": 5562,
      "Ġclassifier": 5563,
      "Ġdigits": 5564,
      "ĠNULL": 5565,
      "Ġcombined": 5566,
      "Ġimagine": 5567,
      "abilities": 5568,
      "Ġdocuments": 5569,
      "Ġmap": 5570,
      "Ġactor": 5571,
      "ĠFurthermore": 5572,
      "Ġresear": 5573,
      "Ġconserv": 5574,
      "css": 5575,
      "nO": 5576,
      "Ġreligion": 5577,
      "âĤ": 5578,
      "Ġentry": 5579,
      "ĠLa": 5580,
      "Ġfeedback": 5581,
      "Ġprison": 5582,
      "atin": 5583,
      "Ġfamilies": 5584,
      "âĤ¬": 5585,
      "ĠDavid": 5586,
      "Ġer": 5587,
      "poses": 5588,
      "Ġkeyword": 5589,
      "Ġkeeps": 5590,
      "Ġtherefore": 5591,
      "Ġtomat": 5592,
      "Ġadvantage": 5593,
      "Ġsad": 5594,
      "Ġcommer": 5595,
      "ĠSam": 5596,
      "ĠHigh": 5597,
      "Ġdisappoint": 5598,
      "Ġvaluable": 5599,
      "cember": 5600,
      "ixture": 5601,
      "Ġmathemat": 5602,
      "MA": 5603,
      "Ġoccas": 5604,
      "Ġdelete": 5605,
      "Ġfuel": 5606,
      "Ġinfer": 5607,
      "Ġalle": 5608,
      "style": 5609,
      "mut": 5610,
      "fo": 5611,
      "Ġbact": 5612,
      "Ġfamiliar": 5613,
      "Ġpad": 5614,
      "Item": 5615,
      "iber": 5616,
      "ober": 5617,
      "Ġcrow": 5618,
      "Ġpra": 5619,
      "ĠDemocr": 5620,
      "keras": 5621,
      "ĠJune": 5622,
      "ĠUI": 5623,
      "Ġnoun": 5624,
      "fortunately": 5625,
      "ĠFile": 5626,
      "ida": 5627,
      "Ġspecifies": 5628,
      "Ġpunct": 5629,
      "Ġfrequently": 5630,
      "Ġarrest": 5631,
      "men": 5632,
      "Ġacknow": 5633,
      "Ġappearance": 5634,
      "total": 5635,
      "ĠAnge": 5636,
      "oded": 5637,
      "Ġmanip": 5638,
      "Ġascending": 5639,
      "Ġlock": 5640,
      "ypes": 5641,
      "ĠClass": 5642,
      "Ġprepar": 5643,
      "Ġsubs": 5644,
      "rand": 5645,
      "Field": 5646,
      "ĠAS": 5647,
      "kit": 5648,
      "Ġcamera": 5649,
      "Ġsustain": 5650,
      "Ser": 5651,
      "Ġbudget": 5652,
      "parse": 5653,
      "edia": 5654,
      "Ġreached": 5655,
      "Ġtom": 5656,
      "inent": 5657,
      "Ġru": 5658,
      "cribe": 5659,
      "Ġ195": 5660,
      "price": 5661,
      "Ġgarlic": 5662,
      "umps": 5663,
      "ĠTur": 5664,
      "vered": 5665,
      "ĠExample": 5666,
      "Ġarm": 5667,
      "Ġconcerned": 5668,
      "riage": 5669,
      "open": 5670,
      "flo": 5671,
      "ĠJanuary": 5672,
      "Ġweak": 5673,
      "agon": 5674,
      "Ġholds": 5675,
      "Ġtags": 5676,
      "clusive": 5677,
      "Ġpractices": 5678,
      "Ġindependent": 5679,
      "ĠMarch": 5680,
      "Ġacademia": 5681,
      "Ġportray": 5682,
      "Ġbusinesses": 5683,
      "Ġdeveloping": 5684,
      "ĠSelect": 5685,
      "ints": 5686,
      "urg": 5687,
      "asket": 5688,
      "Ġrates": 5689,
      "connect": 5690,
      "Ġdownload": 5691,
      "Ġenvironmental": 5692,
      "Ġpossess": 5693,
      "('/": 5694,
      "Ġpackages": 5695,
      "ĠPal": 5696,
      "Ġsettings": 5697,
      "Ġslic": 5698,
      "Ġspending": 5699,
      "Ġdiverse": 5700,
      "hus": 5701,
      "Ġ27": 5702,
      "ensity": 5703,
      "ref": 5704,
      "Ġ};\\": 5705,
      "Ġrom": 5706,
      "Ġfiction": 5707,
      "Ġsusp": 5708,
      "iate": 5709,
      "Ġcompos": 5710,
      "ĠSecond": 5711,
      "enge": 5712,
      "Ġreferring": 5713,
      "Ġtraffic": 5714,
      "Ġsyntax": 5715,
      "Ġowner": 5716,
      "raction": 5717,
      "Ġpairs": 5718,
      "Ġdrinks": 5719,
      "Ġ`'": 5720,
      "iminal": 5721,
      "ĠJuly": 5722,
      "Ġclassic": 5723,
      "pop": 5724,
      "orter": 5725,
      "Ġfailed": 5726,
      "ĠExplanation": 5727,
      "Ġmedium": 5728,
      "Ġchat": 5729,
      "Ġtensor": 5730,
      "Ġ})": 5731,
      "base": 5732,
      "ĠJew": 5733,
      "enses": 5734,
      "Ġsolutions": 5735,
      "ĠBY": 5736,
      "Ġreferred": 5737,
      "Ġbegins": 5738,
      "Ph": 5739,
      "Ġdigital": 5740,
      "ĠCUDA": 5741,
      "Ġstream": 5742,
      "ĠConclusion": 5743,
      "Ġpapers": 5744,
      "ĠCalculate": 5745,
      "gu": 5746,
      "ĠRussia": 5747,
      "istry": 5748,
      "std": 5749,
      "Ġshell": 5750,
      "AB": 5751,
      "Ġhealthcare": 5752,
      "Ġconcaten": 5753,
      "Ġglad": 5754,
      "Ġdestroy": 5755,
      "ressed": 5756,
      "ovember": 5757,
      "orthern": 5758,
      "Ġfirm": 5759,
      ")):": 5760,
      "mo": 5761,
      "Ġauthent": 5762,
      "Ġfederal": 5763,
      "Ġhar": 5764,
      "ĠType": 5765,
      "ĠContext": 5766,
      "Ġinno": 5767,
      "Ġadvent": 5768,
      "pan": 5769,
      "Ġhun": 5770,
      "nFor": 5771,
      "Ġassigned": 5772,
      "Ġepis": 5773,
      "Ġversions": 5774,
      "users": 5775,
      "score": 5776,
      "udd": 5777,
      "ĠCounty": 5778,
      "Ġexchange": 5779,
      "Ġ{}": 5780,
      "Ġhidden": 5781,
      "reet": 5782,
      "ĠDay": 5783,
      "ĠSen": 5784,
      "Ġfrust": 5785,
      "ME": 5786,
      "None": 5787,
      "Ġgirls": 5788,
      "Ġspeaker": 5789,
      "ilarly": 5790,
      "cific": 5791,
      "Ġ`$": 5792,
      "ubble": 5793,
      "Ġelection": 5794,
      "employ": 5795,
      "Ġsport": 5796,
      "Ġdepth": 5797,
      "des": 5798,
      "ĠBro": 5799,
      "Ġlatest": 5800,
      "ij": 5801,
      "Ġpepper": 5802,
      "')\\": 5803,
      "ked": 5804,
      "Ġgraduate": 5805,
      "orders": 5806,
      "Ġlocations": 5807,
      "Ġcats": 5808,
      "Ġselection": 5809,
      "omet": 5810,
      "Ġspirit": 5811,
      "24": 5812,
      "west": 5813,
      "ĠApril": 5814,
      "rops": 5815,
      "import": 5816,
      "water": 5817,
      "Ġprepare": 5818,
      "ission": 5819,
      "Ġwel": 5820,
      "dden": 5821,
      "Ġsubjects": 5822,
      "Ġterrible": 5823,
      "ĠAugust": 5824,
      "ka": 5825,
      "Ġweekend": 5826,
      "igr": 5827,
      "Ġdatetime": 5828,
      "Ġhyp": 5829,
      "layers": 5830,
      "choice": 5831,
      "Ġfacing": 5832,
      "Ġdad": 5833,
      "Ġhttp": 5834,
      "Ġlabor": 5835,
      "Ġturns": 5836,
      "istor": 5837,
      "ias": 5838,
      "Ġscr": 5839,
      "Ġcolon": 5840,
      "Ġloved": 5841,
      "oughly": 5842,
      "Ġcow": 5843,
      "Ġthick": 5844,
      "your": 5845,
      "Ġmoves": 5846,
      "column": 5847,
      "Ġefficiency": 5848,
      "Ġcandidate": 5849,
      "Ġdefining": 5850,
      "Ġunable": 5851,
      "Ġteams": 5852,
      "Ġconstantly": 5853,
      "atus": 5854,
      "ĠAfrica": 5855,
      "Ġdiagn": 5856,
      "Ġmechanical": 5857,
      "Ġshirt": 5858,
      "Ġmine": 5859,
      "Ġship": 5860,
      "emember": 5861,
      "Ġinterests": 5862,
      "Ġmurder": 5863,
      "Ġpictures": 5864,
      "rences": 5865,
      "Ġcas": 5866,
      "ĠSeptember": 5867,
      "ools": 5868,
      "ipped": 5869,
      "ĠThrough": 5870,
      "ND": 5871,
      "Ġjson": 5872,
      "Ġbirthday": 5873,
      "ĠMichael": 5874,
      "Ġamazing": 5875,
      "Ġimplementing": 5876,
      "Ġraised": 5877,
      "Ġkeywords": 5878,
      "ibly": 5879,
      "han": 5880,
      "01": 5881,
      "ĠGeorge": 5882,
      "appy": 5883,
      "Ġdivide": 5884,
      "ync": 5885,
      "}</": 5886,
      "Ġpassion": 5887,
      "Ġtrend": 5888,
      "Ġcomplexity": 5889,
      "Python": 5890,
      "Ġsudden": 5891,
      "Ġtechnical": 5892,
      "color": 5893,
      "ĠMain": 5894,
      "Ġparse": 5895,
      "Ġvast": 5896,
      "ician": 5897,
      "ĠFriday": 5898,
      "Ġfundament": 5899,
      "Ġstrategy": 5900,
      "rab": 5901,
      "Ġanxiety": 5902,
      "Flow": 5903,
      "ĠAut": 5904,
      "Ġ500": 5905,
      "Ġexcellent": 5906,
      "module": 5907,
      "Ġwine": 5908,
      "friendly": 5909,
      "Ġoutdo": 5910,
      "Ġdivision": 5911,
      "Ġunlike": 5912,
      "()`.": 5913,
      "Ġflight": 5914,
      "Change": 5915,
      "Ġencount": 5916,
      "OU": 5917,
      "ĠWeb": 5918,
      "Ġisland": 5919,
      "nes": 5920,
      "ĠPaul": 5921,
      "Ġ26": 5922,
      "Ġbatch": 5923,
      "Ġcycle": 5924,
      "Ġassess": 5925,
      "Ġtur": 5926,
      "Se": 5927,
      "rian": 5928,
      "Ġmatplotlib": 5929,
      "Input": 5930,
      "Ġideal": 5931,
      "ector": 5932,
      "Ġpregn": 5933,
      "Ġcheap": 5934,
      "Ġworry": 5935,
      "Ġclothing": 5936,
      "ĠArticle": 5937,
      "message": 5938,
      "Ġos": 5939,
      "Ġfuck": 5940,
      "ĠUp": 5941,
      "Ġcovered": 5942,
      "Ġcounts": 5943,
      "Ġfreed": 5944,
      "Ġhabit": 5945,
      "azon": 5946,
      "Ġsinger": 5947,
      "Ġweird": 5948,
      "Ġking": 5949,
      "Ġbirds": 5950,
      "Ġchann": 5951,
      "Ġusername": 5952,
      "ĠInit": 5953,
      "SV": 5954,
      "ĠComb": 5955,
      "Ġnotes": 5956,
      "Ġstudying": 5957,
      "under": 5958,
      "soft": 5959,
      "Ġemergency": 5960,
      "ĠDecember": 5961,
      "ĠNovember": 5962,
      "Ġinstitution": 5963,
      "Ġpolic": 5964,
      "cor": 5965,
      "Ġencourage": 5966,
      "Ġcitizens": 5967,
      "ago": 5968,
      "Ġcontrad": 5969,
      "Ġtuple": 5970,
      "Ġbowl": 5971,
      "Ġstructures": 5972,
      "nRemember": 5973,
      "AD": 5974,
      "ĠMovie": 5975,
      "Ġnone": 5976,
      "element": 5977,
      "Ġcomprehension": 5978,
      "Ġbrowser": 5979,
      "ĠTex": 5980,
      "><": 5981,
      "Ġnull": 5982,
      "Ġanswering": 5983,
      "lst": 5984,
      "ĠTake": 5985,
      "chers": 5986,
      "Ġincreases": 5987,
      "ĠCam": 5988,
      "ara": 5989,
      "Ġdetermined": 5990,
      "tering": 5991,
      "ĠWithin": 5992,
      "Ġgod": 5993,
      "aid": 5994,
      "Ġblog": 5995,
      "Ġjudge": 5996,
      "Count": 5997,
      "Ġexception": 5998,
      "ĠTime": 5999,
      "ĠWindows": 6000,
      "Ġloops": 6001,
      "iance": 6002,
      "Ġdiscovered": 6003,
      "ĠBen": 6004,
      "At": 6005,
      "Ġcomedy": 6006,
      "Ġacqu": 6007,
      "Ġdistribution": 6008,
      "pal": 6009,
      "ĠOctober": 6010,
      "Ġindices": 6011,
      "Ġsky": 6012,
      "ĠAustralia": 6013,
      "Ġidentified": 6014,
      "Ġcompetition": 6015,
      "Ġstating": 6016,
      "ĠBill": 6017,
      "Ġestim": 6018,
      "fered": 6019,
      "Ġfinished": 6020,
      "oday": 6021,
      "ĠMor": 6022,
      "Ġprepared": 6023,
      "ĠUnion": 6024,
      "Ġthousands": 6025,
      "Ġtwice": 6026,
      "ĠThink": 6027,
      "ĠMac": 6028,
      "Ġsuggested": 6029,
      "Index": 6030,
      "Ġpreviously": 6031,
      "Ġahead": 6032,
      "Ġundergrad": 6033,
      "Ġpurposes": 6034,
      "Ġdealing": 6035,
      "Ġproced": 6036,
      "Ġhes": 6037,
      "lam": 6038,
      "Ġplenty": 6039,
      "Ġbillion": 6040,
      "Ġmoral": 6041,
      "ii": 6042,
      "Ġknowing": 6043,
      "Ġvillage": 6044,
      "icial": 6045,
      "Ġsorts": 6046,
      "yal": 6047,
      "ĠPersonX": 6048,
      "show": 6049,
      "Ġchallenging": 6050,
      "Ġstated": 6051,
      "Ġriver": 6052,
      "rout": 6053,
      "books": 6054,
      "Ġcreative": 6055,
      "Ġdollars": 6056,
      "ĠRiver": 6057,
      "Ġnative": 6058,
      "throp": 6059,
      "Ġskill": 6060,
      "ria": 6061,
      "Ġdynamic": 6062,
      "amples": 6063,
      "esterday": 6064,
      "90": 6065,
      "Ġdebate": 6066,
      "ĠuseState": 6067,
      "Ġhandling": 6068,
      "Ġseemed": 6069,
      "Ġappoint": 6070,
      "Ġbiggest": 6071,
      "aks": 6072,
      "rill": 6073,
      "allow": 6074,
      "Ġinternal": 6075,
      "Ġpalindrome": 6076,
      "Ġcloud": 6077,
      "Date": 6078,
      "Ġclosed": 6079,
      "Ġelimin": 6080,
      "Ġgift": 6081,
      "Ġbond": 6082,
      "see": 6083,
      "Ġelif": 6084,
      "ĠTensorFlow": 6085,
      "Ġmixture": 6086,
      "arant": 6087,
      "ushed": 6088,
      "ĠRun": 6089,
      "));": 6090,
      "ĠRich": 6091,
      "mean": 6092,
      "ĠSchool": 6093,
      "Ġ`__": 6094,
      "Ġefficiently": 6095,
      "\"\")": 6096,
      "ĠHey": 6097,
      "ĠCong": 6098,
      "Ġsyn": 6099,
      "Man": 6100,
      "ocation": 6101,
      "Ġchosen": 6102,
      "Ġinstructions": 6103,
      "Ġaccordingly": 6104,
      "tf": 6105,
      "Ġunits": 6106,
      "Ġhero": 6107,
      "ĠPhil": 6108,
      "Ġsch": 6109,
      "ander": 6110,
      "Ġexecution": 6111,
      "Ġlic": 6112,
      "ĠCr": 6113,
      "ĠFace": 6114,
      "Ġregions": 6115,
      "rams": 6116,
      "27": 6117,
      "last": 6118,
      "Ġpizza": 6119,
      "Ġapproximately": 6120,
      "ĠCap": 6121,
      "Ġgrass": 6122,
      "target": 6123,
      "Ġinstances": 6124,
      "Ġtypical": 6125,
      "ĠConsider": 6126,
      "Ġ194": 6127,
      "Ġdelicious": 6128,
      "tered": 6129,
      "ĠConst": 6130,
      "ĠPat": 6131,
      "valuate": 6132,
      "ta": 6133,
      "Ġpure": 6134,
      "Ġsession": 6135,
      "request": 6136,
      "\"]": 6137,
      "Ġmenu": 6138,
      "Ġpages": 6139,
      "Ġtransition": 6140,
      "Ġphilosopher": 6141,
      "ĠAfrican": 6142,
      "ĠTwitter": 6143,
      "Two": 6144,
      "Ġoutcome": 6145,
      "Ġbattle": 6146,
      "ĠBas": 6147,
      "Ġslowly": 6148,
      "Ġplug": 6149,
      "Ġworst": 6150,
      "Ġescape": 6151,
      "\");": 6152,
      "Ġforced": 6153,
      "asters": 6154,
      "Ġrat": 6155,
      "Ġillegal": 6156,
      "Ġvalidation": 6157,
      "going": 6158,
      "Ġresponsibility": 6159,
      "Ġmobile": 6160,
      "amin": 6161,
      "Ġpowers": 6162,
      "Button": 6163,
      "Ġsharing": 6164,
      "Ġwriter": 6165,
      "Ġcapacity": 6166,
      "Ġfriendly": 6167,
      "Ġoffered": 6168,
      "asure": 6169,
      "Ġconcent": 6170,
      "Ġoffering": 6171,
      "Ġinputs": 6172,
      "Ġaffected": 6173,
      "ĠSmith": 6174,
      "Ġshouldn": 6175,
      "Ġmission": 6176,
      "Ġmotor": 6177,
      "Ġpractical": 6178,
      "Ġseparated": 6179,
      "Ġbake": 6180,
      "wide": 6181,
      "ĠVe": 6182,
      "ashion": 6183,
      "Ġpolitics": 6184,
      "Ġsupported": 6185,
      "Ġhur": 6186,
      "Ġbeach": 6187,
      "anges": 6188,
      "Ġperce": 6189,
      "Ġparticles": 6190,
      "fast": 6191,
      "Ġdependencies": 6192,
      "generate": 6193,
      "Ġinterface": 6194,
      "Ġreports": 6195,
      "ĠBre": 6196,
      "ums": 6197,
      "ĠRE": 6198,
      "Ġgoods": 6199,
      "Ġterrit": 6200,
      "Ġcriminal": 6201,
      "Ġofficer": 6202,
      "\";": 6203,
      "Ġproceed": 6204,
      "Ġcleaning": 6205,
      "ĠTry": 6206,
      "Ġwit": 6207,
      "Ġshift": 6208,
      "Ġvideos": 6209,
      "sentence": 6210,
      "Ġschedule": 6211,
      "Ġrob": 6212,
      "Ġstrategies": 6213,
      "Ġrestrict": 6214,
      "Ġkick": 6215,
      "weight": 6216,
      "Us": 6217,
      "Ġguitar": 6218,
      "ĠTail": 6219,
      "Ġseeking": 6220,
      "Ġfairly": 6221,
      "oul": 6222,
      "Ġpartner": 6223,
      "Ġcoordin": 6224,
      "ĠWHERE": 6225,
      "Ġserving": 6226,
      "Ġremoving": 6227,
      "Ġargs": 6228,
      "Ġending": 6229,
      "Ġtemplate": 6230,
      "Ġheader": 6231,
      "Ġsurrounding": 6232,
      "Ġamounts": 6233,
      "Ġbunch": 6234,
      "Ġparties": 6235,
      "Ġcircumst": 6236,
      "Ġsupply": 6237,
      "she": 6238,
      "console": 6239,
      "secut": 6240,
      "Ġmixed": 6241,
      "alle": 6242,
      "Ġdates": 6243,
      "Ġrational": 6244,
      "Ġ};": 6245,
      "Ġpowder": 6246,
      "Ġatom": 6247,
      "antly": 6248,
      "Ġexcess": 6249,
      "anted": 6250,
      "ĠEdit": 6251,
      "arter": 6252,
      "bru": 6253,
      "Ġ});\\": 6254,
      "prime": 6255,
      "Ġtruck": 6256,
      "Ġdirected": 6257,
      "Ġraw": 6258,
      "Ġharder": 6259,
      "Ġexecuted": 6260,
      "Ġadvis": 6261,
      "Ġpul": 6262,
      "Ġartists": 6263,
      "iments": 6264,
      "ĠFrank": 6265,
      "Ġregularly": 6266,
      "anged": 6267,
      "Ġ(\"\"": 6268,
      "ounced": 6269,
      "ĠGreek": 6270,
      "Ġconstructor": 6271,
      "Ġdance": 6272,
      "Ġinvolving": 6273,
      "Ġappreciated": 6274,
      "Ġimplic": 6275,
      "common": 6276,
      "ipping": 6277,
      "Ġexistence": 6278,
      "Ġunex": 6279,
      "Ġpatient": 6280,
      "Ġbodies": 6281,
      "asy": 6282,
      "Ġsod": 6283,
      "Ġfly": 6284,
      "Ġ45": 6285,
      "Ġphen": 6286,
      "ĠWater": 6287,
      "ĠReturn": 6288,
      "Ġwa": 6289,
      "yes": 6290,
      "rb": 6291,
      "Ġmeasures": 6292,
      "username": 6293,
      "Ġexport": 6294,
      "Ġcompares": 6295,
      "ulated": 6296,
      "ormal": 6297,
      "Ġbeliefs": 6298,
      "Ġsetup": 6299,
      "upid": 6300,
      "ĠWestern": 6301,
      "Ob": 6302,
      "Ġ1000": 6303,
      "ros": 6304,
      "Ġsolar": 6305,
      "Ġtechnique": 6306,
      "Ġadvert": 6307,
      "Ġ70": 6308,
      "matrix": 6309,
      "Ġfan": 6310,
      "Ġapparent": 6311,
      "ĠKeep": 6312,
      "Ġwed": 6313,
      "ĠRob": 6314,
      "Ġdataframe": 6315,
      "Ġbright": 6316,
      "option": 6317,
      "Ġforget": 6318,
      "AA": 6319,
      "ĠSolve": 6320,
      "ĠHTTP": 6321,
      "Ġdesire": 6322,
      "Ġrecursively": 6323,
      "ificial": 6324,
      "ĠThom": 6325,
      "Ġcompleted": 6326,
      "Ġteen": 6327,
      "Ġcharacteristics": 6328,
      "Ġrapid": 6329,
      "Ġ2015": 6330,
      "ĠMonday": 6331,
      "lfriend": 6332,
      "Ġ2016": 6333,
      "born": 6334,
      "gression": 6335,
      "Ġopposite": 6336,
      "Ġ2012": 6337,
      "Ġforg": 6338,
      "Ġnutri": 6339,
      "Of": 6340,
      "Ġfol": 6341,
      "nWhen": 6342,
      "Ġdrinking": 6343,
      "0000": 6344,
      "Time": 6345,
      "formation": 6346,
      "bruary": 6347,
      "Ġfocuses": 6348,
      "owels": 6349,
      "Ġpropos": 6350,
      "osis": 6351,
      "Ġlandsc": 6352,
      "Ġtemperatures": 6353,
      "Ġconscious": 6354,
      "Ġfalls": 6355,
      "Ġmassive": 6356,
      "[:": 6357,
      "nFirst": 6358,
      "ĠTexas": 6359,
      "ologies": 6360,
      "Ġsubtract": 6361,
      "ĠBefore": 6362,
      "Ġthank": 6363,
      "Ġsatisfaction": 6364,
      "Ġauth": 6365,
      "Ġmail": 6366,
      "Ġreduced": 6367,
      "Ġconven": 6368,
      "Component": 6369,
      "Ġtough": 6370,
      "rec": 6371,
      "ĠImport": 6372,
      "Ġ('": 6373,
      "yl": 6374,
      "icip": 6375,
      "Ġhumor": 6376,
      "Ġ===": 6377,
      "Ġtalks": 6378,
      "Ġmoist": 6379,
      "Ġrank": 6380,
      "Ġcombine": 6381,
      "Ġmanaged": 6382,
      "ĠMart": 6383,
      "Ġbreaking": 6384,
      "Ġ2014": 6385,
      ")?": 6386,
      "Ġorigin": 6387,
      "Un": 6388,
      "ED": 6389,
      "Ġwarn": 6390,
      "Ġouter": 6391,
      "istan": 6392,
      "','": 6393,
      "ĠGreen": 6394,
      "Ġedge": 6395,
      "Ġnor": 6396,
      "ĠPeter": 6397,
      "Ġcontro": 6398,
      "Ġoccup": 6399,
      "75": 6400,
      "xide": 6401,
      "dig": 6402,
      "ĠObama": 6403,
      "aphr": 6404,
      "Ġguests": 6405,
      "Ġgrade": 6406,
      "Ġcrowd": 6407,
      "Ġrecognize": 6408,
      "Ġscientists": 6409,
      "Ġpros": 6410,
      "fun": 6411,
      "====": 6412,
      "35": 6413,
      "gent": 6414,
      "Ġ2010": 6415,
      "Ġpreferences": 6416,
      "wind": 6417,
      "rence": 6418,
      "Ġelectricity": 6419,
      "Ġwet": 6420,
      "Ġyellow": 6421,
      "Model": 6422,
      "Ġgrid": 6423,
      "sect": 6424,
      "Ġpolicies": 6425,
      "Ġattend": 6426,
      "ĠSch": 6427,
      "Ġminute": 6428,
      "osure": 6429,
      "Ġdissatisf": 6430,
      "Ġobviously": 6431,
      "Ġexpressed": 6432,
      "Ġweights": 6433,
      "Ġmotion": 6434,
      "Ġedit": 6435,
      "ĠQue": 6436,
      "uk": 6437,
      "ĠDan": 6438,
      "ĠPlay": 6439,
      "ien": 6440,
      "Ġlun": 6441,
      "uses": 6442,
      "Ġnodes": 6443,
      "core": 6444,
      "oration": 6445,
      "Ġwra": 6446,
      "Ġeducational": 6447,
      "Ġbelieved": 6448,
      "olean": 6449,
      "ION": 6450,
      "nex": 6451,
      "eper": 6452,
      "Ġsomewhere": 6453,
      "Ġbike": 6454,
      "ĠAtt": 6455,
      "Ġbacteria": 6456,
      "Ġelectrical": 6457,
      "Ġbeef": 6458,
      "models": 6459,
      "ĠBest": 6460,
      "Ġsorting": 6461,
      "Ġcommunities": 6462,
      "Ġcutting": 6463,
      "holder": 6464,
      "Ġcash": 6465,
      "Ġcorpor": 6466,
      "Ġlaugh": 6467,
      "ammat": 6468,
      "Ġsomewhat": 6469,
      "ein": 6470,
      "Ġcommercial": 6471,
      "},": 6472,
      "otic": 6473,
      "ĠGold": 6474,
      "Ġ2013": 6475,
      "Ġplane": 6476,
      "Ġstands": 6477,
      "ĠSometimes": 6478,
      "Ġdiscover": 6479,
      "Ġrestaurants": 6480,
      "Ġconverted": 6481,
      "lower": 6482,
      "Ġfactorial": 6483,
      "cipl": 6484,
      "ĠAsk": 6485,
      "Ġsurg": 6486,
      "Ġalgorithms": 6487,
      "ĠHarry": 6488,
      "Ġfont": 6489,
      "Click": 6490,
      "fill": 6491,
      "sius": 6492,
      "Ġdescribing": 6493,
      "'],": 6494,
      "ifications": 6495,
      "Ġecho": 6496,
      "ford": 6497,
      "well": 6498,
      "Ġchallenge": 6499,
      "Ġgeneration": 6500,
      "Ġoptimized": 6501,
      "Ġgenre": 6502,
      "lig": 6503,
      "Ġmarriage": 6504,
      "hetic": 6505,
      "lab": 6506,
      "txt": 6507,
      "Ġlies": 6508,
      "Ġenable": 6509,
      "ahren": 6510,
      "Ġremote": 6511,
      "oses": 6512,
      "Ġmountain": 6513,
      "34": 6514,
      "Ġperforms": 6515,
      "ĠHas": 6516,
      "Ġvolume": 6517,
      "ernel": 6518,
      "Ġtomorrow": 6519,
      "heit": 6520,
      "Ġbasket": 6521,
      "Ġvalidate": 6522,
      "being": 6523,
      "filter": 6524,
      "Ġexternal": 6525,
      "Ġrepresented": 6526,
      "ĠRel": 6527,
      "ĠApple": 6528,
      "Ġshut": 6529,
      "rogen": 6530,
      "Ġrocks": 6531,
      "ologist": 6532,
      "auty": 6533,
      "Ġkilling": 6534,
      "Char": 6535,
      "Ġ{'": 6536,
      "Ġfighting": 6537,
      "erry": 6538,
      "Ġargue": 6539,
      "Ġmask": 6540,
      "Ġdream": 6541,
      "arser": 6542,
      "river": 6543,
      "ĠNote": 6544,
      "ĠPort": 6545,
      "ĠProvide": 6546,
      "Ġentered": 6547,
      "Ġopinions": 6548,
      "Ġconverts": 6549,
      "Ġfunctional": 6550,
      "ĠPo": 6551,
      "orney": 6552,
      "ĠMet": 6553,
      "Ġrealize": 6554,
      "oked": 6555,
      "Ġcultures": 6556,
      "Ġmainly": 6557,
      "UT": 6558,
      "Ġlayout": 6559,
      "Ġhash": 6560,
      "comm": 6561,
      "(),": 6562,
      "Ġcapable": 6563,
      "omin": 6564,
      "Ġchurch": 6565,
      "ĠFacebook": 6566,
      "Ġdecades": 6567,
      "ĠOP": 6568,
      "Ġvet": 6569,
      "Yes": 6570,
      "ogue": 6571,
      "Ġtreated": 6572,
      "Ġcontradict": 6573,
      "rm": 6574,
      "ĠPH": 6575,
      "Ġevening": 6576,
      "Ġoccurred": 6577,
      "lla": 6578,
      "Ġrelative": 6579,
      "Ġcomparing": 6580,
      "Ġextracted": 6581,
      "erts": 6582,
      "ini": 6583,
      "Ġblank": 6584,
      "ĠEnsure": 6585,
      "Ġanymore": 6586,
      "ialize": 6587,
      "Ġpurs": 6588,
      "igration": 6589,
      "Ġrobot": 6590,
      "Ġselling": 6591,
      "Ġdefense": 6592,
      "Ġfans": 6593,
      "Ġevolution": 6594,
      "ĠBuild": 6595,
      "ĠScience": 6596,
      "ructure": 6597,
      "Ġpotatoes": 6598,
      "Ġpunctuation": 6599,
      "Ġsmallest": 6600,
      "DB": 6601,
      "]:": 6602,
      "comes": 6603,
      "'`": 6604,
      "lation": 6605,
      "dir": 6606,
      "Ġprotection": 6607,
      "ĠOption": 6608,
      "eline": 6609,
      "ahrenheit": 6610,
      "akers": 6611,
      "nic": 6612,
      "Ġencountering": 6613,
      "ĠAsia": 6614,
      "'])": 6615,
      "fix": 6616,
      "Ġprofile": 6617,
      "ĠMySQL": 6618,
      "onna": 6619,
      "âĢĿ": 6620,
      "Ġbasis": 6621,
      "ĠWas": 6622,
      "ffect": 6623,
      "ĠGeneral": 6624,
      "ativity": 6625,
      "Ġshowed": 6626,
      "hab": 6627,
      "Ġphenomen": 6628,
      "Ġoperating": 6629,
      "Ġoccurrences": 6630,
      "Ġvehicles": 6631,
      "gricult": 6632,
      "($": 6633,
      "gre": 6634,
      "Ġlinks": 6635,
      "IF": 6636,
      "Ġ\"\"\"": 6637,
      "iveness": 6638,
      "Ġbusy": 6639,
      "IS": 6640,
      "Ġ2011": 6641,
      "Ġpoly": 6642,
      "Ġtexture": 6643,
      "Ġcuis": 6644,
      "ĠMiss": 6645,
      "config": 6646,
      "person": 6647,
      "Ġexperiencing": 6648,
      "then": 6649,
      "orest": 6650,
      "Ġadmit": 6651,
      "Ġexpectations": 6652,
      "Ġcomputers": 6653,
      "night": 6654,
      "Ġmoon": 6655,
      "ename": 6656,
      "Ġgirlfriend": 6657,
      "net": 6658,
      "rd": 6659,
      "Ġ2000": 6660,
      "Ġbreaks": 6661,
      "Sum": 6662,
      "Ġdocumentation": 6663,
      "Ġicon": 6664,
      "Ġwont": 6665,
      "olf": 6666,
      "Ġopened": 6667,
      "Ġdense": 6668,
      "Ġdisag": 6669,
      "ĠGET": 6670,
      "Ġprofession": 6671,
      "Ġappend": 6672,
      "Ġdescript": 6673,
      "Ġneighbors": 6674,
      "nWe": 6675,
      "Ġhearing": 6676,
      "Ġabort": 6677,
      "Ġpainting": 6678,
      "Ġfet": 6679,
      "`:": 6680,
      "Ġdebt": 6681,
      "vey": 6682,
      "ĠText": 6683,
      "Ġlemon": 6684,
      "Ġwaves": 6685,
      "shape": 6686,
      "Sort": 6687,
      "Ġsites": 6688,
      "Ġcards": 6689,
      "Ġpatients": 6690,
      "Ġvar": 6691,
      "Ġmuscle": 6692,
      "CE": 6693,
      "ns": 6694,
      "comfort": 6695,
      "VID": 6696,
      "Ġcreation": 6697,
      "apped": 6698,
      "Ġincident": 6699,
      "rad": 6700,
      "CU": 6701,
      "Ġintent": 6702,
      "Ġwhenever": 6703,
      "Ġreput": 6704,
      "rapy": 6705,
      "Ġran": 6706,
      "Ġdescending": 6707,
      "Ġrecommendations": 6708,
      "Ġnearby": 6709,
      "Ġcircumstances": 6710,
      "Ġthanks": 6711,
      "Ġhotel": 6712,
      "Ġfailure": 6713,
      "Ġenthus": 6714,
      "ĠBook": 6715,
      "Ġpiv": 6716,
      "Ġofficials": 6717,
      "Ġdecimal": 6718,
      "Ġconfident": 6719,
      "amily": 6720,
      "Ġcloser": 6721,
      "Ġretrieves": 6722,
      "]`.": 6723,
      "roller": 6724,
      "Ġillness": 6725,
      "Ġhole": 6726,
      "Ġassistance": 6727,
      "Ġpredicted": 6728,
      "ĠBra": 6729,
      "ĠEmpire": 6730,
      "Ġpersonally": 6731,
      "Ġphoto": 6732,
      "ĠPrint": 6733,
      "ĠMexico": 6734,
      "Dense": 6735,
      "Ġentertainment": 6736,
      "ropy": 6737,
      "Ġfreedom": 6738,
      "response": 6739,
      "ĠLeague": 6740,
      "content": 6741,
      "Ġintention": 6742,
      "poon": 6743,
      "Ġjuice": 6744,
      "Ġcommunicate": 6745,
      "Ġsearching": 6746,
      "ĠFebruary": 6747,
      "apter": 6748,
      "Ġportion": 6749,
      "Ġ35": 6750,
      "icide": 6751,
      "Ġseven": 6752,
      "olit": 6753,
      "xic": 6754,
      "ĠUSA": 6755,
      "Ġconnections": 6756,
      "Ġsed": 6757,
      "Ġguidelines": 6758,
      "Ġgenetic": 6759,
      "Ġregardless": 6760,
      "Ġsupporting": 6761,
      "Ġtall": 6762,
      "ĠWars": 6763,
      "ulti": 6764,
      "Ġformation": 6765,
      "ikip": 6766,
      "Ġoriginally": 6767,
      "afe": 6768,
      "aint": 6769,
      "Ġbigger": 6770,
      "Ġincredibly": 6771,
      "nif": 6772,
      "Ġshock": 6773,
      "Ġmarketing": 6774,
      "Ġanyway": 6775,
      "grade": 6776,
      "ĠExt": 6777,
      "poch": 6778,
      "Ġdecrease": 6779,
      "Ġthin": 6780,
      "omy": 6781,
      "Ġcul": 6782,
      "Ġunexpected": 6783,
      "Ġtoward": 6784,
      "Ġreliable": 6785,
      "Ġdigit": 6786,
      "Ġprotein": 6787,
      "ĠTH": 6788,
      ").\\": 6789,
      "Ġliber": 6790,
      "Ġdimens": 6791,
      "Ġliterature": 6792,
      "Act": 6793,
      "nclass": 6794,
      "ĠSunday": 6795,
      "Ġstable": 6796,
      "Ġobvious": 6797,
      "osit": 6798,
      "Ġaccepted": 6799,
      "dist": 6800,
      "kin": 6801,
      "group": 6802,
      "Ġthemes": 6803,
      "ikipedia": 6804,
      "Ġ`/": 6805,
      "ĠBig": 6806,
      "active": 6807,
      "Ġstronger": 6808,
      "').": 6809,
      "Submit": 6810,
      "Ġconcise": 6811,
      "Ġadults": 6812,
      "Ġspl": 6813,
      "istory": 6814,
      "28": 6815,
      "Ġneutral": 6816,
      "Ġdividing": 6817,
      "Ġstupid": 6818,
      "Ġgarden": 6819,
      "Ġuns": 6820,
      "Ġdivided": 6821,
      "Ġdoctors": 6822,
      "Ġcapture": 6823,
      "As": 6824,
      "Ġstandards": 6825,
      "Ġwal": 6826,
      "mes": 6827,
      "Search": 6828,
      "Ġachieved": 6829,
      "Ġarchitecture": 6830,
      "Ġunc": 6831,
      "Ġyounger": 6832,
      "even": 6833,
      "Ġchop": 6834,
      "Ġcourses": 6835,
      "Ġflowers": 6836,
      "ĠAmazon": 6837,
      "nn": 6838,
      "ĠKingdom": 6839,
      "Ġstorm": 6840,
      "ĠLog": 6841,
      "ĠPI": 6842,
      "stood": 6843,
      "position": 6844,
      "Ġride": 6845,
      "Soup": 6846,
      "Ġgreatest": 6847,
      "cop": 6848,
      "Ġenjoyed": 6849,
      "Ġsummar": 6850,
      "arsh": 6851,
      "Ġgrammat": 6852,
      "Ġcomprehensive": 6853,
      "Ġpursu": 6854,
      "ĠINT": 6855,
      "Ġcrazy": 6856,
      "ĠResearch": 6857,
      "you": 6858,
      "Ġvisible": 6859,
      "Ġappeared": 6860,
      "Ġstopped": 6861,
      "Ġshoes": 6862,
      "Max": 6863,
      "Ġsurvive": 6864,
      "Ġholiday": 6865,
      "Ġexcited": 6866,
      "uine": 6867,
      "autifulSoup": 6868,
      "dec": 6869,
      "necess": 6870,
      "ighter": 6871,
      "Ġconveys": 6872,
      "Ġpossibility": 6873,
      "agrams": 6874,
      "aching": 6875,
      "Ġintroduced": 6876,
      "Ġreader": 6877,
      "Ġimproved": 6878,
      "ĠFlor": 6879,
      "nExplanation": 6880,
      "67": 6881,
      "close": 6882,
      "Ġlunch": 6883,
      "ĠCour": 6884,
      "ifts": 6885,
      "Ġrelation": 6886,
      "onym": 6887,
      "Ġhorse": 6888,
      "Ġstuck": 6889,
      "Ġresponses": 6890,
      "Ġrivers": 6891,
      "irty": 6892,
      "ĠSea": 6893,
      "Ġarrange": 6894,
      "Ġlargely": 6895,
      "Ġorganized": 6896,
      "ĠMad": 6897,
      "Ġvisited": 6898,
      "lymp": 6899,
      "Ad": 6900,
      "ollow": 6901,
      "Ġ2008": 6902,
      "Ġvanilla": 6903,
      "uous": 6904,
      "Ġconsult": 6905,
      "Ġtries": 6906,
      "ĠFranc": 6907,
      "aturday": 6908,
      "'))": 6909,
      "She": 6910,
      "Ġshowc": 6911,
      "ĠRepublican": 6912,
      "Ġfashion": 6913,
      "Ġuppercase": 6914,
      "ĠRock": 6915,
      "Ġsociet": 6916,
      "Ġjustice": 6917,
      "reddit": 6918,
      "Ġgreatly": 6919,
      "Ġlosing": 6920,
      "Ġcontributed": 6921,
      "Ġprem": 6922,
      "Ġturning": 6923,
      "Ġiterating": 6924,
      "Ġacceptable": 6925,
      "false": 6926,
      "ĠRobert": 6927,
      "Ġyesterday": 6928,
      "Ġparaphr": 6929,
      "ĠInternational": 6930,
      "Ġorganizations": 6931,
      "Ġinvestment": 6932,
      "rating": 6933,
      "ĠPut": 6934,
      "engers": 6935,
      "ĠJoe": 6936,
      "Ġgathering": 6937,
      "Ġfewer": 6938,
      "Ġmedicine": 6939,
      "ĠSar": 6940,
      "Ġstom": 6941,
      "ĠBay": 6942,
      "Ġsaved": 6943,
      "Ġalphabet": 6944,
      "submit": 6945,
      "Ġfant": 6946,
      "Ġrein": 6947,
      "Ġupset": 6948,
      "Ġemails": 6949,
      "quest": 6950,
      "Ġseriously": 6951,
      "ĠDen": 6952,
      "Ġsac": 6953,
      "Ġvision": 6954,
      "ĠLou": 6955,
      "Ġagent": 6956,
      "Ġol": 6957,
      "23": 6958,
      "Ġmedian": 6959,
      "Ġtired": 6960,
      "Ġtea": 6961,
      "CD": 6962,
      "world": 6963,
      "ĠPot": 6964,
      "Ġcert": 6965,
      "Ġ\"/": 6966,
      "AP": 6967,
      "Ġattacks": 6968,
      "Ġ&&": 6969,
      "Ġroutine": 6970,
      "ING": 6971,
      "Line": 6972,
      "Ġthor": 6973,
      "whel": 6974,
      "Ġeight": 6975,
      "agram": 6976,
      "Ġagreement": 6977,
      "Ġrecognition": 6978,
      "pet": 6979,
      "Ġpaint": 6980,
      "strings": 6981,
      "ĠFire": 6982,
      "Ġ29": 6983,
      "US": 6984,
      "Ġabuse": 6985,
      "Ġpump": 6986,
      "Ġseat": 6987,
      "Ġherself": 6988,
      "dep": 6989,
      "fess": 6990,
      "Ġlistening": 6991,
      "rim": 6992,
      "Ġregist": 6993,
      "Ġdumb": 6994,
      "Ġdict": 6995,
      "Ġrecorded": 6996,
      "ours": 6997,
      "70": 6998,
      "Ġsenior": 6999,
      "emic": 7000,
      "Ġfigures": 7001,
      "Ġpipe": 7002,
      "Ġdeliver": 7003,
      "hered": 7004,
      "ĠFed": 7005,
      "replace": 7006,
      "ĠJes": 7007,
      "ĠAtl": 7008,
      "Node": 7009,
      "ĠCombine": 7010,
      "Ġcompute": 7011,
      "ingly": 7012,
      "tml": 7013,
      "Ġexhib": 7014,
      "Ġsigns": 7015,
      "ounce": 7016,
      "Ġ'.": 7017,
      "Ġfruits": 7018,
      "Ġfixed": 7019,
      "ammar": 7020,
      "Set": 7021,
      "iest": 7022,
      "iler": 7023,
      "Ġspring": 7024,
      "Ġstret": 7025,
      "Ġdio": 7026,
      "Ġeast": 7027,
      "Ġsignal": 7028,
      "Ġenforce": 7029,
      "Ġimpress": 7030,
      "Ġpromote": 7031,
      "stream": 7032,
      "TE": 7033,
      "Ġdestination": 7034,
      "Ġnom": 7035,
      "Ġ[\"": 7036,
      "venue": 7037,
      "Ġspin": 7038,
      "install": 7039,
      "Ġgenuine": 7040,
      "Ġunnecess": 7041,
      "Ġconsumption": 7042,
      "ĠParis": 7043,
      "Ġvit": 7044,
      "Ġformal": 7045,
      "Ġnotable": 7046,
      "Ġchances": 7047,
      "Ġorganisms": 7048,
      "Ġperfectly": 7049,
      "Ġepoch": 7050,
      "Ġanywhere": 7051,
      "Ġterror": 7052,
      "Ġhonestly": 7053,
      "ĠPHP": 7054,
      "ader": 7055,
      "Ġquiet": 7056,
      "ĠFrancis": 7057,
      "aturally": 7058,
      "Ġcoun": 7059,
      "Ġduplicate": 7060,
      "olic": 7061,
      "Ġresource": 7062,
      "----------------": 7063,
      "Ġapps": 7064,
      "Ġvacation": 7065,
      "Ġera": 7066,
      "Ġtow": 7067,
      "ĠAss": 7068,
      "Ġguarant": 7069,
      "Ġstrict": 7070,
      "astern": 7071,
      "Ġperman": 7072,
      "Ġchair": 7073,
      "race": 7074,
      "Ġ'__": 7075,
      "Ġtaxes": 7076,
      "Ġspect": 7077,
      "Ġreceiving": 7078,
      "semb": 7079,
      "ĠPick": 7080,
      "lers": 7081,
      "ĠLong": 7082,
      "gative": 7083,
      "eries": 7084,
      "Ġrenew": 7085,
      "ĠInter": 7086,
      "Ġscores": 7087,
      "Ġframework": 7088,
      "LD": 7089,
      "Ġbroke": 7090,
      "Ġhomes": 7091,
      "Ġenvironments": 7092,
      "Ġbehavi": 7093,
      "ĠScott": 7094,
      "ĠSand": 7095,
      "Ġsuspect": 7096,
      "Ġboys": 7097,
      "ĠWed": 7098,
      "rast": 7099,
      "Ġaward": 7100,
      "umin": 7101,
      "Ġmanaging": 7102,
      ")`.": 7103,
      "Ġpronoun": 7104,
      "Ġoptimizer": 7105,
      "Ġcups": 7106,
      "Ġ`(": 7107,
      "celer": 7108,
      "noon": 7109,
      "OM": 7110,
      "ĠStreet": 7111,
      "Ġschol": 7112,
      "cpp": 7113,
      "Ġdb": 7114,
      "Ġagreed": 7115,
      "Ġtight": 7116,
      "Ġmagic": 7117,
      "Ġtaught": 7118,
      "cat": 7119,
      "ĠNative": 7120,
      "ĠAndroid": 7121,
      "Ġlegs": 7122,
      "rooms": 7123,
      "Ġbeauty": 7124,
      "Ġdesk": 7125,
      "Ġsurgery": 7126,
      "Ġbattery": 7127,
      "Ġweapons": 7128,
      "Ġcomplicated": 7129,
      "inity": 7130,
      "ye": 7131,
      "gypt": 7132,
      "ulations": 7133,
      "ĠDepartment": 7134,
      "van": 7135,
      "hello": 7136,
      "reate": 7137,
      "Ġwave": 7138,
      "estyle": 7139,
      "Ġmerg": 7140,
      "Ġregression": 7141,
      "Ġmarked": 7142,
      "ĠNa": 7143,
      "Ġsuggesting": 7144,
      "nNow": 7145,
      "rael": 7146,
      "Ġmanufacturing": 7147,
      "ĠPri": 7148,
      "ĠLine": 7149,
      "Ġhappiness": 7150,
      "mid": 7151,
      "Ġtotally": 7152,
      "Be": 7153,
      "ĠToday": 7154,
      "Ġproof": 7155,
      "vin": 7156,
      "Ġce": 7157,
      "Ġinvestigation": 7158,
      "uby": 7159,
      "icks": 7160,
      "Ġacts": 7161,
      "Ġnoise": 7162,
      "Ġcuisine": 7163,
      "PE": 7164,
      "cluding": 7165,
      "Ġroast": 7166,
      "Ġsending": 7167,
      "Ġguard": 7168,
      "ĠOff": 7169,
      "Ġwhereas": 7170,
      "Ġrandomly": 7171,
      "rency": 7172,
      "Ġsigned": 7173,
      "Ġplate": 7174,
      "reverse": 7175,
      "Ġnewsp": 7176,
      "ĠFlorida": 7177,
      "ĠBob": 7178,
      "ĠExpress": 7179,
      "cules": 7180,
      "Ġclosely": 7181,
      "65": 7182,
      "parent": 7183,
      "uke": 7184,
      "win": 7185,
      "ampions": 7186,
      "Ġpars": 7187,
      "plication": 7188,
      "ĠOcean": 7189,
      "Ġemphasizes": 7190,
      "Ġdioxide": 7191,
      "ĠOlymp": 7192,
      "Ġcircle": 7193,
      "Ġmillions": 7194,
      "\\_": 7195,
      "Ġlisted": 7196,
      "Ġhoping": 7197,
      "()`,": 7198,
      "transform": 7199,
      "uesday": 7200,
      "AM": 7201,
      "ĠGive": 7202,
      "Ġattorney": 7203,
      "How": 7204,
      "tee": 7205,
      "Ġfridge": 7206,
      "ĠBrown": 7207,
      "crete": 7208,
      "fall": 7209,
      "Ġremainder": 7210,
      "Ġinteraction": 7211,
      "Ġgeograph": 7212,
      "image": 7213,
      "Ġcompat": 7214,
      "Ġrisks": 7215,
      "den": 7216,
      "ilit": 7217,
      "Ġreprodu": 7218,
      "Ġenhance": 7219,
      "ĠInstructions": 7220,
      "Ġring": 7221,
      "icul": 7222,
      "Ġcry": 7223,
      "Ġdefe": 7224,
      "accur": 7225,
      "sl": 7226,
      "remove": 7227,
      "Ġengaged": 7228,
      "Ġfaced": 7229,
      "Ġcab": 7230,
      "ĠLos": 7231,
      "></": 7232,
      "ĠWilliam": 7233,
      "Ġtail": 7234,
      "Ġdeploy": 7235,
      "lobal": 7236,
      "Ġrecy": 7237,
      "iform": 7238,
      "vid": 7239,
      "Ġactively": 7240,
      "Ġinformed": 7241,
      "Ġnavigate": 7242,
      "âĦ": 7243,
      "Ġprofit": 7244,
      "Ġprediction": 7245,
      "ĠNews": 7246,
      "âĦ¢": 7247,
      "Classifier": 7248,
      "esome": 7249,
      "Ġmeals": 7250,
      "icted": 7251,
      "Ġinn": 7252,
      "ĠCP": 7253,
      "Ġboolean": 7254,
      "Ġgravity": 7255,
      "tep": 7256,
      "Ġpasta": 7257,
      "Ġordered": 7258,
      "Ġinstrument": 7259,
      "Add": 7260,
      "Ġimproving": 7261,
      "push": 7262,
      "âĤ¬âĦ¢": 7263,
      "Ġprobability": 7264,
      "ano": 7265,
      "usr": 7266,
      "estic": 7267,
      "]`,": 7268,
      "Ġhat": 7269,
      "Ġagricult": 7270,
      "ĠLaw": 7271,
      "Ġmuse": 7272,
      "Ġbare": 7273,
      "Ġabilities": 7274,
      "Ġinstit": 7275,
      "Ġdut": 7276,
      "Ġqueue": 7277,
      ")`,": 7278,
      "Ġmarks": 7279,
      "Im": 7280,
      "ĠPet": 7281,
      "handle": 7282,
      "eric": 7283,
      "ĠLin": 7284,
      "Ġbuildings": 7285,
      "ĠBritain": 7286,
      "Ġcrack": 7287,
      "Ġorganic": 7288,
      "sey": 7289,
      "float": 7290,
      "Ġplus": 7291,
      "Ġlengths": 7292,
      "Ġwhom": 7293,
      "Ġabst": 7294,
      "Ġteeth": 7295,
      "php": 7296,
      "Ġdisagree": 7297,
      "Ġsole": 7298,
      "ĠSaturday": 7299,
      "Ġcharges": 7300,
      "weet": 7301,
      "Ġmachines": 7302,
      "Ġloading": 7303,
      "Ġjack": 7304,
      "ĠConf": 7305,
      "appe": 7306,
      "uing": 7307,
      "Ġmistake": 7308,
      "car": 7309,
      "bled": 7310,
      "tenance": 7311,
      "olving": 7312,
      "Ġprove": 7313,
      "Ġstudied": 7314,
      "Ġcookie": 7315,
      "ĠStudent": 7316,
      "rocery": 7317,
      "Ġdoubt": 7318,
      "Ġcustomize": 7319,
      "Ġarent": 7320,
      "Ġreject": 7321,
      "ĠObject": 7322,
      "Ġ]": 7323,
      "Ġurban": 7324,
      "Ġrecognized": 7325,
      "adian": 7326,
      "irgin": 7327,
      "Ġmir": 7328,
      "vention": 7329,
      "ashed": 7330,
      "Ġhtml": 7331,
      "Ġacknowled": 7332,
      "Ġresearchers": 7333,
      "Ġphotos": 7334,
      "Ġmeaningful": 7335,
      "Ġsteel": 7336,
      "Ġfrequent": 7337,
      "Ġillust": 7338,
      "Ġthreads": 7339,
      "Ġaccessible": 7340,
      "Ġverify": 7341,
      "Ġgrammar": 7342,
      "EY": 7343,
      "och": 7344,
      "Ġfocusing": 7345,
      "->": 7346,
      "Ġnons": 7347,
      "Ġoverwhel": 7348,
      "Ġafternoon": 7349,
      "charact": 7350,
      "Ġheavily": 7351,
      "save": 7352,
      "apple": 7353,
      "Ġcombinations": 7354,
      "Ġpayment": 7355,
      "Ġprominent": 7356,
      "usiness": 7357,
      "token": 7358,
      "img": 7359,
      "Ġnegot": 7360,
      "ĠLee": 7361,
      "foo": 7362,
      "Ġstruggle": 7363,
      "select": 7364,
      "Ġdiseases": 7365,
      "ĠEgypt": 7366,
      "Ġremark": 7367,
      "Ġstruggling": 7368,
      "Ġaid": 7369,
      "ĠAsian": 7370,
      "Ġunus": 7371,
      "Ġwitness": 7372,
      "Ġattempting": 7373,
      "Ġworker": 7374,
      "Ġshel": 7375,
      "ĠMath": 7376,
      "icago": 7377,
      "Ġstir": 7378,
      "ĠAcadem": 7379,
      "second": 7380,
      "Ġconference": 7381,
      "ĠHam": 7382,
      "Ġinteractions": 7383,
      "Ġgotten": 7384,
      "ĠFirstly": 7385,
      "ĠHaw": 7386,
      "Ġclin": 7387,
      "Ġnarrative": 7388,
      "Ġfle": 7389,
      "Ġneighborhood": 7390,
      "Ġbranch": 7391,
      "Ġurl": 7392,
      "ĠColle": 7393,
      "ĠMoreover": 7394,
      "Ġnaturally": 7395,
      "ĠMiddle": 7396,
      "Ġcorn": 7397,
      "There": 7398,
      "Ġmort": 7399,
      "agues": 7400,
      "Ġpadding": 7401,
      "ĠAng": 7402,
      "ĠFact": 7403,
      "Ġintense": 7404,
      "Ġextends": 7405,
      "Ġsuffering": 7406,
      "Ġmetrics": 7407,
      "Ġtiny": 7408,
      "Ġexposed": 7409,
      "Ġmeanings": 7410,
      "IA": 7411,
      "Ġhell": 7412,
      "Ġdiscipl": 7413,
      "Ġmatters": 7414,
      "Ġoutcomes": 7415,
      "Ġ2020": 7416,
      "Ġdifferently": 7417,
      "nexport": 7418,
      "exec": 7419,
      "Context": 7420,
      "ĠDNA": 7421,
      "Ġstructured": 7422,
      "__`": 7423,
      "Ġecosy": 7424,
      "Ġrealized": 7425,
      "ildren": 7426,
      "Ġrub": 7427,
      "89": 7428,
      "ota": 7429,
      "ĠCongress": 7430,
      "Ġcorner": 7431,
      "standing": 7432,
      "Ġlazy": 7433,
      "uster": 7434,
      "Ġalive": 7435,
      "Ġjoined": 7436,
      "Ġcere": 7437,
      "Ġnutrients": 7438,
      "uit": 7439,
      "Ġadm": 7440,
      "Ġunderstood": 7441,
      "Ġsmoke": 7442,
      "66": 7443,
      "ĠItaly": 7444,
      "Ġdiscussing": 7445,
      "ĠMal": 7446,
      "Ġaccomplishes": 7447,
      "Ġtech": 7448,
      "Ġbaseball": 7449,
      "Ġteas": 7450,
      "Ġwinning": 7451,
      "Ġfounded": 7452,
      "rier": 7453,
      "section": 7454,
      "Ġboat": 7455,
      "37": 7456,
      "pip": 7457,
      "Ġproud": 7458,
      "Ġsleeping": 7459,
      "Ġsan": 7460,
      "Ġeveryday": 7461,
      "Ġaccounts": 7462,
      "plete": 7463,
      "Ġinfo": 7464,
      "Ġphysically": 7465,
      "width": 7466,
      "ĠTeacher": 7467,
      "ĠFollow": 7468,
      "ĠLear": 7469,
      "Ġpercentage": 7470,
      "ĠCel": 7471,
      "Ġgained": 7472,
      "Ġbeans": 7473,
      "Ġble": 7474,
      "ĠMount": 7475,
      "ensus": 7476,
      "Ġpig": 7477,
      "Ġfell": 7478,
      "Ġevil": 7479,
      "iki": 7480,
      "Ġwalked": 7481,
      ")]": 7482,
      "Ġbeat": 7483,
      "pport": 7484,
      "Ġtriangle": 7485,
      "Ġquantity": 7486,
      "Ġcareful": 7487,
      "longest": 7488,
      "Table": 7489,
      "gon": 7490,
      "ĠWhe": 7491,
      "Ġexpressions": 7492,
      "Ġsupervis": 7493,
      "eal": 7494,
      "();\\": 7495,
      "uating": 7496,
      "If": 7497,
      "Ġwestern": 7498,
      "Ġunlikely": 7499,
      "Ġwarning": 7500,
      "Ġattempts": 7501,
      "HT": 7502,
      "ville": 7503,
      "inc": 7504,
      "ĠMax": 7505,
      "ĠKorea": 7506,
      "ĠHeres": 7507,
      "Ġhire": 7508,
      "Ġseeds": 7509,
      "Ġcrust": 7510,
      "ws": 7511,
      "Ġisol": 7512,
      "Ġassert": 7513,
      "Ġlaunch": 7514,
      "Ġarrive": 7515,
      "Ġcontem": 7516,
      "Ġunnecessary": 7517,
      "Ġactress": 7518,
      "Ġdissatisfaction": 7519,
      "itz": 7520,
      "olves": 7521,
      "Ġpublish": 7522,
      "Ġtab": 7523,
      "illy": 7524,
      "Ġresistance": 7525,
      "=['": 7526,
      "anta": 7527,
      "Ġartificial": 7528,
      "Ġpollution": 7529,
      "Ġprecise": 7530,
      "cling": 7531,
      "Ġgradually": 7532,
      "cluded": 7533,
      "ĠDec": 7534,
      "ĠThose": 7535,
      "axis": 7536,
      "Ġexposure": 7537,
      "Ġperiods": 7538,
      ">>": 7539,
      "ĠParty": 7540,
      "ĠDescribe": 7541,
      "Ġarms": 7542,
      "atter": 7543,
      "ĠBack": 7544,
      "ĠAngeles": 7545,
      "ĠTuesday": 7546,
      "Ġconstra": 7547,
      "Ġchecked": 7548,
      "Ġdistribut": 7549,
      "Ġloud": 7550,
      "ĠMach": 7551,
      "Ġterminal": 7552,
      "npm": 7553,
      "Ġstoring": 7554,
      "New": 7555,
      "Ġextensive": 7556,
      "Ġ>=": 7557,
      "Ġwire": 7558,
      "Ġgrew": 7559,
      "Ġrecursive": 7560,
      "Ġtemporary": 7561,
      "Ġmoder": 7562,
      "Ġfundamental": 7563,
      "Ġnerv": 7564,
      "lient": 7565,
      "Ġexpressing": 7566,
      "ĠDonald": 7567,
      "iel": 7568,
      "Ġchef": 7569,
      "Ġexpresses": 7570,
      "Ġcrisis": 7571,
      "Key": 7572,
      "Ġsunlight": 7573,
      "Ġstomach": 7574,
      "ĠCD": 7575,
      "volution": 7576,
      "cil": 7577,
      "ental": 7578,
      "Ġ2009": 7579,
      "pired": 7580,
      "ĠEvaluate": 7581,
      "largest": 7582,
      "nesday": 7583,
      "nint": 7584,
      "ĠHealth": 7585,
      "ccer": 7586,
      "iner": 7587,
      "ĠTim": 7588,
      "Ġbelieves": 7589,
      "Ġliked": 7590,
      "Product": 7591,
      "ulf": 7592,
      "Ġhousehold": 7593,
      "Ġrecommendation": 7594,
      "Ġsensitive": 7595,
      "relu": 7596,
      "Ġinher": 7597,
      "Ġ300": 7598,
      "anda": 7599,
      "Ġtiss": 7600,
      "lete": 7601,
      "writer": 7602,
      "Ġfalling": 7603,
      "ĠWork": 7604,
      "ĠBatman": 7605,
      "ona": 7606,
      "Ġdomin": 7607,
      "Ġlie": 7608,
      "Ġyeah": 7609,
      "ĠRom": 7610,
      "Ġwelcome": 7611,
      "ĠMil": 7612,
      "Ġdim": 7613,
      "Ġinfluenced": 7614,
      "Ġmolecules": 7615,
      "ĠIS": 7616,
      "idering": 7617,
      "ansion": 7618,
      "hesis": 7619,
      "Ġperformances": 7620,
      "Ġcalm": 7621,
      "Ġdimensions": 7622,
      "Ġstaying": 7623,
      "ĠIsrael": 7624,
      "Ġcos": 7625,
      "Ġoh": 7626,
      "ĠSee": 7627,
      "Ġsale": 7628,
      "55": 7629,
      "dered": 7630,
      "ĠBet": 7631,
      "Ġapplies": 7632,
      "\".\\": 7633,
      "36": 7634,
      "TH": 7635,
      "Ġreflects": 7636,
      "erved": 7637,
      "ĠUnfortunately": 7638,
      "ĠJim": 7639,
      "Ġpermut": 7640,
      "Ġfriendship": 7641,
      "Ġmultiply": 7642,
      "Object": 7643,
      "Ġtro": 7644,
      "Ġyield": 7645,
      "Ġdistrict": 7646,
      "Ġindustrial": 7647,
      "Ġproposed": 7648,
      "Ġconfiguration": 7649,
      "Ġauthors": 7650,
      "88": 7651,
      "piration": 7652,
      "Ġreturning": 7653,
      "ĠAssoci": 7654,
      "Ġpaths": 7655,
      "Ġquote": 7656,
      "ĠSorry": 7657,
      "Ġchoosing": 7658,
      "Ġpursue": 7659,
      "ĠCook": 7660,
      "Ġrh": 7661,
      "free": 7662,
      "Ġauto": 7663,
      "Ġpopularity": 7664,
      "Ġlights": 7665,
      "Enter": 7666,
      "Ġoutputs": 7667,
      "ĠTask": 7668,
      "Ġinnov": 7669,
      "send": 7670,
      "ĠOR": 7671,
      "Ġreaders": 7672,
      "Ġnormally": 7673,
      "Ġwalls": 7674,
      "Ġangry": 7675,
      "Ġsignificance": 7676,
      "Ġadop": 7677,
      "berg": 7678,
      "Ġsettle": 7679,
      "Ġencountered": 7680,
      "Ġstone": 7681,
      "ĠMicro": 7682,
      "Ġreaching": 7683,
      "nel": 7684,
      "berry": 7685,
      "Ġfunding": 7686,
      "Ġfourth": 7687,
      "ĠThomas": 7688,
      "yard": 7689,
      "ĠVict": 7690,
      "road": 7691,
      "ĠCle": 7692,
      "ĠMean": 7693,
      "Ġfoss": 7694,
      "Ġmuscles": 7695,
      "Ġinsight": 7696,
      "inem": 7697,
      "names": 7698,
      "Not": 7699,
      "SELECT": 7700,
      "Ġexplains": 7701,
      "Ġneither": 7702,
      "Ġquit": 7703,
      "'),": 7704,
      "Ġriding": 7705,
      "Ġclock": 7706,
      "Ġpivot": 7707,
      "nam": 7708,
      "exp": 7709,
      "Ġobjective": 7710,
      "ĠSal": 7711,
      "Ġpreced": 7712,
      "avy": 7713,
      "Ġgenerating": 7714,
      "Ġdepression": 7715,
      "oto": 7716,
      "Ġinfection": 7717,
      "Ġsear": 7718,
      "packages": 7719,
      "Ġwage": 7720,
      "ĠGen": 7721,
      "Ġlifestyle": 7722,
      "500": 7723,
      "cker": 7724,
      "ĠInternet": 7725,
      "Ġsaving": 7726,
      "ĠYear": 7727,
      "oral": 7728,
      "ĠSocial": 7729,
      "lled": 7730,
      "Ġestablishment": 7731,
      "\\\\": 7732,
      "Ġkeras": 7733,
      "Ġsomehow": 7734,
      "Ġroutes": 7735,
      "Ġhundreds": 7736,
      "Ġthri": 7737,
      "ĠMer": 7738,
      "ĠRemember": 7739,
      "]]": 7740,
      "Ġtun": 7741,
      "Ġprops": 7742,
      "Ġcraft": 7743,
      "Ġorange": 7744,
      "))\\": 7745,
      "gl": 7746,
      "Ġsurf": 7747,
      "Ġfold": 7748,
      "Ġticket": 7749,
      "keys": 7750,
      "Ġloan": 7751,
      "OP": 7752,
      "ĠElect": 7753,
      "Ġbaked": 7754,
      "Ġdownv": 7755,
      "Ġly": 7756,
      "Ġvine": 7757,
      "ĠSimilarly": 7758,
      "=(": 7759,
      "frequ": 7760,
      "ĠSol": 7761,
      "Ġspecifying": 7762,
      "wing": 7763,
      "Ġprinting": 7764,
      "Ġleaders": 7765,
      "Ġdebut": 7766,
      "contain": 7767,
      "Ġclassified": 7768,
      "Ġdelivery": 7769,
      "ĠRandom": 7770,
      "esides": 7771,
      "AN": 7772,
      "link": 7773,
      "Ġmanually": 7774,
      "uts": 7775,
      "ĠDate": 7776,
      "Ġuncle": 7777,
      "Ġfellow": 7778,
      "ĠVis": 7779,
      "Ġextension": 7780,
      "temp": 7781,
      "sty": 7782,
      "UP": 7783,
      "ĠGroup": 7784,
      "Ġalt": 7785,
      "Ġadvoc": 7786,
      "outer": 7787,
      "Ġconfir": 7788,
      "hyd": 7789,
      "Ġtranslate": 7790,
      "ĠIslam": 7791,
      "Ġdecent": 7792,
      "some": 7793,
      "Ġflavors": 7794,
      "ĠArab": 7795,
      "ĠHot": 7796,
      "Ġske": 7797,
      "cd": 7798,
      "uan": 7799,
      "Ġbroader": 7800,
      "Ġinherent": 7801,
      "ags": 7802,
      "Ġnervous": 7803,
      "ĠKeras": 7804,
      "rum": 7805,
      "ĠCall": 7806,
      "Ġdining": 7807,
      "Ġcoal": 7808,
      "Ġphilosoph": 7809,
      "Ġcandidates": 7810,
      "Ġongoing": 7811,
      "Ġutilize": 7812,
      "mail": 7813,
      "Ġlimits": 7814,
      "Ġchest": 7815,
      "Ġencrypt": 7816,
      "Ġapple": 7817,
      "ĠBeautifulSoup": 7818,
      "Ġfasc": 7819,
      "???": 7820,
      "Ġexplained": 7821,
      "ĠFeel": 7822,
      "39": 7823,
      "Ġ1990": 7824,
      "Ġbasketball": 7825,
      "Ġpersonality": 7826,
      "ĠClint": 7827,
      "Ġguidance": 7828,
      "Ġathlet": 7829,
      "lord": 7830,
      "utch": 7831,
      "Ġsheet": 7832,
      "ĠBur": 7833,
      "29": 7834,
      "stud": 7835,
      "unte": 7836,
      "Ġimplemented": 7837,
      "Ġyard": 7838,
      "ĠSS": 7839,
      "vas": 7840,
      "owing": 7841,
      "ĠFin": 7842,
      "Ġreward": 7843,
      "Ġcommands": 7844,
      "Ġswimming": 7845,
      "late": 7846,
      "Ġ`@": 7847,
      "Ġacceler": 7848,
      "Sh": 7849,
      "ĠConsidering": 7850,
      "Ġwedding": 7851,
      "Ġthinks": 7852,
      "Ġcarrying": 7853,
      "binary": 7854,
      "Ġdeeper": 7855,
      "ya": 7856,
      "Ġsimilarity": 7857,
      "ading": 7858,
      "gi": 7859,
      "ĠHope": 7860,
      "ltk": 7861,
      "creen": 7862,
      "ĠCurrent": 7863,
      "Ġlegit": 7864,
      "Ġoverl": 7865,
      "making": 7866,
      "isher": 7867,
      "Ġcontents": 7868,
      "GB": 7869,
      "Ġmathematical": 7870,
      "issions": 7871,
      "Ġenters": 7872,
      "Ġauthority": 7873,
      "author": 7874,
      "ursday": 7875,
      "ById": 7876,
      "vest": 7877,
      "alax": 7878,
      "ulating": 7879,
      "Ġwanting": 7880,
      "Ġpunish": 7881,
      "Ġtradition": 7882,
      "ĠDel": 7883,
      "Ġbottle": 7884,
      "Ġ400": 7885,
      "dy": 7886,
      "ĠProduct": 7887,
      "Ġderived": 7888,
      "rastructure": 7889,
      "eger": 7890,
      "Ġroots": 7891,
      "rip": 7892,
      "Ġtrial": 7893,
      "task": 7894,
      "unique": 7895,
      "Ġwash": 7896,
      "Ġimmune": 7897,
      "dev": 7898,
      "ĠMongo": 7899,
      "ĠCOVID": 7900,
      "Ġepisode": 7901,
      "elly": 7902,
      "Ġ1980": 7903,
      "Ġreaches": 7904,
      "ĠHill": 7905,
      "racy": 7906,
      "Ġprinciples": 7907,
      "Ġbreathing": 7908,
      "ĠWednesday": 7909,
      "ĠTechn": 7910,
      "Ġlets": 7911,
      "Ġplaceholder": 7912,
      "Ġwouldnt": 7913,
      "walk": 7914,
      "Ġtorch": 7915,
      "Ġrecording": 7916,
      "Ġsufficient": 7917,
      "Ġconsciousness": 7918,
      "ba": 7919,
      "Ġsuc": 7920,
      "Ġmyth": 7921,
      "imensional": 7922,
      "Ġkil": 7923,
      "zech": 7924,
      "Ġunderlying": 7925,
      "Ġbrings": 7926,
      "ĠEngineering": 7927,
      "Ġplatforms": 7928,
      "ĠChicago": 7929,
      "Ġsalad": 7930,
      "Ġmaintenance": 7931,
      "Ġlikes": 7932,
      "ĠBlue": 7933,
      "Ġchose": 7934,
      "Ġcharged": 7935,
      "Ġdedicated": 7936,
      "ĠProcess": 7937,
      "Ġknife": 7938,
      "real": 7939,
      "Ġcv": 7940,
      "Ġsuppose": 7941,
      "undle": 7942,
      "Ġsharp": 7943,
      "Ġmamm": 7944,
      "ĠHuman": 7945,
      "Ġabortion": 7946,
      "Ġstrongly": 7947,
      "Ġbeneficial": 7948,
      "Ġinstitutions": 7949,
      "jsx": 7950,
      "haust": 7951,
      "Ġcache": 7952,
      "Ġ2017": 7953,
      "Ġofficially": 7954,
      "ston": 7955,
      "Ġstim": 7956,
      "Ġnavigation": 7957,
      "ĠMill": 7958,
      "Ġinjury": 7959,
      "Ġowners": 7960,
      "Ġonions": 7961,
      "Ġspoken": 7962,
      "rid": 7963,
      "util": 7964,
      "Ġinvent": 7965,
      "ride": 7966,
      "Ġactors": 7967,
      "Ġtitles": 7968,
      "44": 7969,
      "icians": 7970,
      "ausible": 7971,
      "123": 7972,
      "ĠAbout": 7973,
      "Ġsurvival": 7974,
      "Ġham": 7975,
      "ĠHen": 7976,
      "Ġstudio": 7977,
      "Ġobtained": 7978,
      "Ġlogging": 7979,
      "Ġdeclare": 7980,
      "De": 7981,
      "Sy": 7982,
      "Ġsat": 7983,
      "Ġentities": 7984,
      "Ġappeal": 7985,
      "Ġemotion": 7986,
      "Ġwebsites": 7987,
      "Ġposted": 7988,
      "ĠBeing": 7989,
      "Ġcompetitive": 7990,
      "Query": 7991,
      "Ġscope": 7992,
      "ustomers": 7993,
      "POST": 7994,
      "Effect": 7995,
      "Ġdiscussed": 7996,
      "status": 7997,
      "Ġassuming": 7998,
      "ĠCollege": 7999,
      "Ġawait": 8000,
      "datetime": 8001,
      "Ġvictims": 8002,
      "Ġmanufacture": 8003,
      "Length": 8004,
      "Ġshooting": 8005,
      "Create": 8006,
      "rey": 8007,
      "Ġusual": 8008,
      "Ġvent": 8009,
      "ĠJul": 8010,
      "File": 8011,
      "eding": 8012,
      "obj": 8013,
      "Ġsatisfied": 8014,
      "Ġstrange": 8015,
      "anna": 8016,
      "Ġbathroom": 8017,
      "ora": 8018,
      "ĠCenter": 8019,
      "Ġgenerator": 8020,
      "26": 8021,
      "Ġarmy": 8022,
      "high": 8023,
      "Ġmemor": 8024,
      "Ġfab": 8025,
      "Ġdess": 8026,
      "ĠEnd": 8027,
      "Ġsoda": 8028,
      "ĠSearch": 8029,
      "ĠReddit": 8030,
      "efficient": 8031,
      "Ġ34": 8032,
      "Ġbear": 8033,
      "Ġhide": 8034,
      "Ġcovers": 8035,
      "Ġboyfriend": 8036,
      "Ġburning": 8037,
      "Ġconfusion": 8038,
      "Ġtrigger": 8039,
      "Ġgrocery": 8040,
      "ĠPass": 8041,
      "ĠCode": 8042,
      "Ġbeer": 8043,
      "Ġaircraft": 8044,
      "Ġoptimal": 8045,
      "Ġhyper": 8046,
      "inder": 8047,
      "ĠâĢľ": 8048,
      "Ġlandscape": 8049,
      "Ġneck": 8050,
      "Ġbreakdown": 8051,
      "Ġcakes": 8052,
      "Ġ(\"": 8053,
      "Ġoutdoor": 8054,
      "suming": 8055,
      "Ġclosest": 8056,
      "ĠGPU": 8057,
      "ĠSort": 8058,
      "EN": 8059,
      "ĠFinal": 8060,
      "anger": 8061,
      "Ġsubstant": 8062,
      "Ġpit": 8063,
      "anguage": 8064,
      "Ġmatching": 8065,
      "Ġannoy": 8066,
      "Ġanthrop": 8067,
      "Ġofficers": 8068,
      "ĠCentral": 8069,
      "Ġfault": 8070,
      "Ġkernel": 8071,
      "allel": 8072,
      "Ġlungs": 8073,
      "Vector": 8074,
      "Ġdivor": 8075,
      "ARCH": 8076,
      "Ġfaithfully": 8077,
      "Ġpil": 8078,
      "ĠHmm": 8079,
      "Ġfired": 8080,
      "edi": 8081,
      "Ġmemories": 8082,
      "ga": 8083,
      "Ġsoldiers": 8084,
      "Ġsouthern": 8085,
      "Ġsandw": 8086,
      "Ġcel": 8087,
      "Ġdrama": 8088,
      "Ġromantic": 8089,
      "Ġpin": 8090,
      "area": 8091,
      "itement": 8092,
      "Ġcallback": 8093,
      "Ġgraduated": 8094,
      "Ġmac": 8095,
      "Ġ''": 8096,
      "Ġsubsequent": 8097,
      "Ġconfidence": 8098,
      "Ġreactions": 8099,
      "ĠGrand": 8100,
      "Ġhouses": 8101,
      "bor": 8102,
      "__':": 8103,
      "Ġfrozen": 8104,
      "customer": 8105,
      "Ġaer": 8106,
      "that": 8107,
      "Ġshares": 8108,
      "ittle": 8109,
      "Ġmagaz": 8110,
      "ĠSarah": 8111,
      "ĠLove": 8112,
      "Ġlegis": 8113,
      "Ġcoherent": 8114,
      "Ġphilosophers": 8115,
      "Ġresc": 8116,
      "ean": 8117,
      "found": 8118,
      "Ġhandles": 8119,
      "Ġperceived": 8120,
      "Ġfif": 8121,
      "Ġlol": 8122,
      "Ġtherm": 8123,
      "Ġremoves": 8124,
      "Ġfort": 8125,
      "Ġrect": 8126,
      "ĠYouT": 8127,
      "Ġlake": 8128,
      "Ġexamine": 8129,
      "Ġdiscusses": 8130,
      "Book": 8131,
      "ĠPos": 8132,
      "sis": 8133,
      "ĠHome": 8134,
      "Ġcontributions": 8135,
      "Ġsurprise": 8136,
      "site": 8137,
      "pload": 8138,
      "Ġexciting": 8139,
      "Ġquarter": 8140,
      "cuse": 8141,
      "Ġconfused": 8142,
      "Ġsucceed": 8143,
      "Ġsteal": 8144,
      "asts": 8145,
      "Ġorg": 8146,
      "Ġlingu": 8147,
      "\"?": 8148,
      "pow": 8149,
      "igm": 8150,
      "Ġcrew": 8151,
      "Ġpounds": 8152,
      "Ġaddresses": 8153,
      "Ġbringing": 8154,
      "ih": 8155,
      "ĠLatin": 8156,
      "Ġlean": 8157,
      "ĠPolice": 8158,
      "Ġbelongs": 8159,
      "eled": 8160,
      "normal": 8161,
      "Ġflying": 8162,
      "asant": 8163,
      "urity": 8164,
      "Ġtank": 8165,
      "Ġvital": 8166,
      "Ġonion": 8167,
      "onda": 8168,
      "Ġrepair": 8169,
      "Ġtip": 8170,
      "draw": 8171,
      "Ġschema": 8172,
      "Ġvul": 8173,
      "Ġdepart": 8174,
      "FL": 8175,
      "ato": 8176,
      "anes": 8177,
      "Ġadj": 8178,
      "aa": 8179,
      "ĠSk": 8180,
      "ĠLink": 8181,
      "Ġlegally": 8182,
      "38": 8183,
      "AC": 8184,
      "method": 8185,
      "Ġforever": 8186,
      "Ġhob": 8187,
      "ellect": 8188,
      "bel": 8189,
      "Ġinfrastructure": 8190,
      "Ġmultiplication": 8191,
      "Ġcontrovers": 8192,
      "Ġbio": 8193,
      "city": 8194,
      "ena": 8195,
      "elete": 8196,
      "eel": 8197,
      "ĠRoy": 8198,
      "Ġconfigure": 8199,
      "Ġunusual": 8200,
      "Case": 8201,
      "bra": 8202,
      "Ġnose": 8203,
      "Ġfilling": 8204,
      "Ġsuddenly": 8205,
      "Ġnetworks": 8206,
      "Ġreads": 8207,
      "Ġcowork": 8208,
      "Ġsmoking": 8209,
      "Ġbull": 8210,
      "Ġhousing": 8211,
      "ĠStr": 8212,
      "Ġinstallation": 8213,
      "ĠDevelop": 8214,
      "Ġtalked": 8215,
      "ĠCzech": 8216,
      "Ġretain": 8217,
      "ĠGovern": 8218,
      "ponents": 8219,
      "Ġinfect": 8220,
      "[\"": 8221,
      "ĠTheres": 8222,
      "Ġbiological": 8223,
      "Ġvot": 8224,
      "ĠThursday": 8225,
      "ĠCSV": 8226,
      "osh": 8227,
      "`),": 8228,
      "Ġvisiting": 8229,
      "Ġinterpretation": 8230,
      "Ġcomposed": 8231,
      "ĠPC": 8232,
      "ĠPac": 8233,
      "Ġ36": 8234,
      "Ġdefend": 8235,
      "Ġtexts": 8236,
      "Ġhoney": 8237,
      "ĠSing": 8238,
      "Ġaxis": 8239,
      "andon": 8240,
      "Ġgenerations": 8241,
      "Ġcharacterized": 8242,
      "Ġwheel": 8243,
      "Ġyoud": 8244,
      "squ": 8245,
      "ĠCanadian": 8246,
      "Ġdrawing": 8247,
      "Ġtensorflow": 8248,
      "ĠJustification": 8249,
      "Ġrevolution": 8250,
      "unning": 8251,
      "ĠFood": 8252,
      "Ġimmediate": 8253,
      "ĠInitialize": 8254,
      "]);": 8255,
      "Ġrely": 8256,
      "ett": 8257,
      "Ġworldwide": 8258,
      "ĠCompany": 8259,
      "Ġcentre": 8260,
      "Ġutilizes": 8261,
      "Ġadministration": 8262,
      "itt": 8263,
      "Ġindirect": 8264,
      "Ġreputation": 8265,
      "!\"\"": 8266,
      "Ġmild": 8267,
      "Ġinsect": 8268,
      "Ġgall": 8269,
      "Ġleadership": 8270,
      "Ġnumerical": 8271,
      "Ġprofessors": 8272,
      "Ġextent": 8273,
      "Ġdram": 8274,
      "ATH": 8275,
      "Ġannounced": 8276,
      "ĠOnly": 8277,
      "Ġwonderful": 8278,
      "arest": 8279,
      "Ġrendering": 8280,
      "hem": 8281,
      "Ġauthorities": 8282,
      "missions": 8283,
      "ĠIP": 8284,
      "Ġbreakfast": 8285,
      "ĠCarol": 8286,
      "Ġscenarios": 8287,
      "ĠThroughout": 8288,
      "var": 8289,
      "Ġinstruction": 8290,
      "Ġfrost": 8291,
      "Ġgonna": 8292,
      "Ġconvin": 8293,
      "Ġsys": 8294,
      "Ġarrested": 8295,
      "}`": 8296,
      "ĠCNN": 8297,
      "Ġsubstance": 8298,
      "Ġenem": 8299,
      "Ġexhaust": 8300,
      "Ġmyster": 8301,
      "ulty": 8302,
      "Ġdisplaying": 8303,
      "Ġsafely": 8304,
      "Ġanalyzing": 8305,
      "Ġtomatoes": 8306,
      "forward": 8307,
      "entropy": 8308,
      "ĠAgain": 8309,
      "DE": 8310,
      "Ġelabor": 8311,
      "Ġratio": 8312,
      "Ġprotest": 8313,
      "Ġfurn": 8314,
      "ĠLo": 8315,
      "func": 8316,
      "Is": 8317,
      "Ġdivers": 8318,
      "ĠKey": 8319,
      "ĠCourt": 8320,
      "lat": 8321,
      "rage": 8322,
      "ups": 8323,
      "Ġfilters": 8324,
      "reams": 8325,
      "oder": 8326,
      "Ġunw": 8327,
      "Ġradiation": 8328,
      "Ġlady": 8329,
      "ĠJo": 8330,
      "Ġsoap": 8331,
      "ette": 8332,
      "ĠMag": 8333,
      "Ġbon": 8334,
      "Ġgrown": 8335,
      "ĠUk": 8336,
      "Tree": 8337,
      "Ġfiltered": 8338,
      "Ġassault": 8339,
      "pread": 8340,
      "Ġdeeply": 8341,
      "power": 8342,
      "Ġcounty": 8343,
      "Ġmeters": 8344,
      "Ġtoler": 8345,
      "ruit": 8346,
      "vector": 8347,
      "Ġcommunic": 8348,
      "Ġgrades": 8349,
      "Ġnpm": 8350,
      "ĠGl": 8351,
      "ĠLastly": 8352,
      "xml": 8353,
      "isk": 8354,
      "entle": 8355,
      "ĠChurch": 8356,
      "Ġselects": 8357,
      "\"\\": 8358,
      "sor": 8359,
      "Ġopposed": 8360,
      "Ġfeat": 8361,
      "ether": 8362,
      "Ġboost": 8363,
      "Log": 8364,
      "Ġtoxic": 8365,
      "ĠIns": 8366,
      "Ġcasual": 8367,
      "ĠRichard": 8368,
      "Ġracist": 8369,
      "All": 8370,
      "Ġ2007": 8371,
      "Ġprotected": 8372,
      "qr": 8373,
      "azz": 8374,
      "Ġbubble": 8375,
      "Ġscared": 8376,
      "ĠDisney": 8377,
      "ĠLouis": 8378,
      "ARCHAR": 8379,
      "Activity": 8380,
      "Ġmush": 8381,
      "Ġwatched": 8382,
      "ĠYouTube": 8383,
      "Ġmad": 8384,
      "Ġcenturies": 8385,
      "Ġanagrams": 8386,
      "Ġexcitement": 8387,
      "Ġwrap": 8388,
      "Ġmal": 8389,
      "Ġfert": 8390,
      "Ġspices": 8391,
      "Ġproducing": 8392,
      "Ġ1970": 8393,
      "Ġadventure": 8394,
      "Ġ31": 8395,
      "Ġiniti": 8396,
      "Ġhoriz": 8397,
      "Ġsoccer": 8398,
      "Ġinfluential": 8399,
      "nap": 8400,
      "Ġflower": 8401,
      "Ġagency": 8402,
      "ĠIsland": 8403,
      "Ġextended": 8404,
      "Ġradius": 8405,
      "ĠMel": 8406,
      "Ġincreasingly": 8407,
      "Ġviolent": 8408,
      "Ġlogin": 8409,
      "Ġhang": 8410,
      "Ġneur": 8411,
      "Ġtens": 8412,
      "Ġassigns": 8413,
      "Ġuncertain": 8414,
      "ections": 8415,
      "Ġconflicts": 8416,
      "Ġforgot": 8417,
      "Ġobst": 8418,
      "Ġcontrolled": 8419,
      "Ġexperts": 8420,
      "ommod": 8421,
      "ĠCharles": 8422,
      "ptions": 8423,
      "ĠVictor": 8424,
      "Ġarts": 8425,
      "Ġdialogue": 8426,
      "Ġmand": 8427,
      "ĠConvert": 8428,
      "dimensional": 8429,
      "Ġnations": 8430,
      "Ġfu": 8431,
      "Ġadministr": 8432,
      "yr": 8433,
      "Ġjoy": 8434,
      "Ġcommitted": 8435,
      "aria": 8436,
      "ĠWithout": 8437,
      "Ġpreparing": 8438,
      "Ġdifficulty": 8439,
      "Ġdanger": 8440,
      "Ġtalent": 8441,
      "Ġtraveling": 8442,
      "Ġexpertise": 8443,
      "iture": 8444,
      "erves": 8445,
      "ĠSir": 8446,
      "Ġcontributing": 8447,
      "Ġaccum": 8448,
      "ĠDev": 8449,
      "Content": 8450,
      "ilty": 8451,
      "ĠMem": 8452,
      "DER": 8453,
      "ĠCapt": 8454,
      "Ġreply": 8455,
      "ĠSubject": 8456,
      "Ġvinegar": 8457,
      "raq": 8458,
      "Ġ'@": 8459,
      "Ġwhites": 8460,
      "Ġupdating": 8461,
      "Ġpushing": 8462,
      "Ġ64": 8463,
      "Ġselecting": 8464,
      "render": 8465,
      "urbation": 8466,
      "ĠNor": 8467,
      "burg": 8468,
      "iot": 8469,
      "ĠPress": 8470,
      "EO": 8471,
      "Ġprocessed": 8472,
      "Ġfake": 8473,
      "Ġsinging": 8474,
      "nStep": 8475,
      "Ġlas": 8476,
      "eting": 8477,
      "Ġharmful": 8478,
      "Ġpointer": 8479,
      "Ġages": 8480,
      "bell": 8481,
      "Ġcommitment": 8482,
      "Ġplain": 8483,
      "Ġ2006": 8484,
      "products": 8485,
      "hum": 8486,
      "arts": 8487,
      "Ġignore": 8488,
      "ampionship": 8489,
      "Ġdiscount": 8490,
      "IC": 8491,
      "ishing": 8492,
      "Prime": 8493,
      "Ġdomain": 8494,
      "Phone": 8495,
      "Ã©": 8496,
      "Ġ[[": 8497,
      "rich": 8498,
      "ensical": 8499,
      "ĠDesign": 8500,
      "Ġdropped": 8501,
      "Ġshorter": 8502,
      "mem": 8503,
      "Ġadject": 8504,
      "Ġsubmitted": 8505,
      "Ġconvenient": 8506,
      "'\\": 8507,
      "ĠAvoid": 8508,
      "apor": 8509,
      "duce": 8510,
      "BA": 8511,
      "Ġmonitor": 8512,
      "ĠArray": 8513,
      "ĠProfess": 8514,
      "aws": 8515,
      "Ġ150": 8516,
      "ĠSwed": 8517,
      "Ġpresents": 8518,
      "direct": 8519,
      "Ġteachers": 8520,
      "Ġpulled": 8521,
      "Ġvoting": 8522,
      "Ġenjoyable": 8523,
      "Ġsir": 8524,
      "aud": 8525,
      "Ġfaces": 8526,
      "Ġdisappe": 8527,
      "ĠVirgin": 8528,
      "oma": 8529,
      "Ġabstract": 8530,
      "oll": 8531,
      "Ġmic": 8532,
      "Le": 8533,
      "aze": 8534,
      "Ġwides": 8535,
      "Ġimply": 8536,
      "mary": 8537,
      "ĠOkay": 8538,
      "ysics": 8539,
      "anned": 8540,
      "ĠSov": 8541,
      "Ġastron": 8542,
      "CRE": 8543,
      "Ġimpression": 8544,
      "ĠWay": 8545,
      "Ġproposal": 8546,
      "giving": 8547,
      "heast": 8548,
      "entiment": 8549,
      "ras": 8550,
      "Ġheading": 8551,
      "Ġanswered": 8552,
      "Ġemployer": 8553,
      "Ġinjuries": 8554,
      "version": 8555,
      "Ġfolder": 8556,
      "greg": 8557,
      "Ġvibr": 8558,
      "ĠMars": 8559,
      "Ġmood": 8560,
      "And": 8561,
      "ĠPOST": 8562,
      "Ġreferences": 8563,
      "verb": 8564,
      "ĠRight": 8565,
      "Ġfitness": 8566,
      "Ġarrived": 8567,
      "ĠWow": 8568,
      "Ġnonsensical": 8569,
      "ĠAge": 8570,
      "ĠDist": 8571,
      "cest": 8572,
      "Ġpoison": 8573,
      "icious": 8574,
      "uls": 8575,
      "Ġalert": 8576,
      "Ġ75": 8577,
      "ĠRest": 8578,
      "Ġblocks": 8579,
      "Ġboundaries": 8580,
      "ocracy": 8581,
      "05": 8582,
      "Ġfraud": 8583,
      "lywood": 8584,
      "Ġcrash": 8585,
      "chron": 8586,
      "istent": 8587,
      "Ġimpressive": 8588,
      "Ġfoundation": 8589,
      "Ġmovements": 8590,
      "Ġmerge": 8591,
      "ded": 8592,
      "Ġdraft": 8593,
      "Ġgay": 8594,
      "ĠAnn": 8595,
      "Ġfits": 8596,
      "osion": 8597,
      "pg": 8598,
      "Ġsizes": 8599,
      "ĠMass": 8600,
      "Ġproducer": 8601,
      "ĠCivil": 8602,
      "Ġchannel": 8603,
      "Ġbills": 8604,
      "web": 8605,
      ":\",": 8606,
      "Map": 8607,
      "ĠImage": 8608,
      "Ġvolunte": 8609,
      "amel": 8610,
      "cores": 8611,
      "Ġsurprised": 8612,
      "Ġapparently": 8613,
      "Sp": 8614,
      "Ġcust": 8615,
      "ĠOld": 8616,
      "ĠSeries": 8617,
      "Ġhall": 8618,
      "Ġpert": 8619,
      "Ġsuicide": 8620,
      "cip": 8621,
      "Test": 8622,
      "Ġresident": 8623,
      "Ġ(-": 8624,
      "Ġloyal": 8625,
      "Ġrail": 8626,
      "Ġbridge": 8627,
      "Ġputs": 8628,
      "Ġkne": 8629,
      "bb": 8630,
      "Ġnobody": 8631,
      "Ġdelay": 8632,
      "aph": 8633,
      "Ġadvisor": 8634,
      "ĠHelp": 8635,
      "Ġolive": 8636,
      "Ġcrimes": 8637,
      "idget": 8638,
      "Ġchips": 8639,
      "Ġwidespread": 8640,
      "Ġaside": 8641,
      "ĠEver": 8642,
      "Ġrationale": 8643,
      "Ġpresentation": 8644,
      "Ġindustries": 8645,
      "Ġlegend": 8646,
      "Ġattempted": 8647,
      "ĠJewish": 8648,
      "va": 8649,
      "aneously": 8650,
      "ppers": 8651,
      "det": 8652,
      "acent": 8653,
      "On": 8654,
      "Py": 8655,
      "viously": 8656,
      "Ġsees": 8657,
      "ĠKorean": 8658,
      "ĠIraq": 8659,
      "Ġmargin": 8660,
      "Ġconsistently": 8661,
      "ĠShow": 8662,
      "Ġutilizing": 8663,
      "Ġembed": 8664,
      "Ġpreferred": 8665,
      "compile": 8666,
      "Ġidentifying": 8667,
      "asp": 8668,
      "asets": 8669,
      "igen": 8670,
      "Ġcontinuous": 8671,
      "Ġlowest": 8672,
      "Ġvocal": 8673,
      "bes": 8674,
      "Ġentering": 8675,
      "Ġprocedure": 8676,
      "ĠHappy": 8677,
      "ĠFil": 8678,
      "Ġaccommod": 8679,
      "Ġcoordinates": 8680,
      "unks": 8681,
      "Ġbrush": 8682,
      "Ġdistingu": 8683,
      "Ġunrelated": 8684,
      "Prov": 8685,
      "DF": 8686,
      "ĠGraph": 8687,
      "Ġscra": 8688,
      "lets": 8689,
      "Ġsett": 8690,
      "Ġelectronic": 8691,
      "Ġsupervisor": 8692,
      "Ġyog": 8693,
      "Ġmoments": 8694,
      ">{": 8695,
      "Ġswap": 8696,
      "Ġuniversities": 8697,
      "bage": 8698,
      "Ġlicense": 8699,
      "System": 8700,
      "Ġinval": 8701,
      "ĠMuslim": 8702,
      "elcome": 8703,
      "ca": 8704,
      "Ġtort": 8705,
      "Americ": 8706,
      "Ġatoms": 8707,
      "Ġplanned": 8708,
      "ĠWal": 8709,
      "Ġcompile": 8710,
      "Ġscikit": 8711,
      "Ġprinciple": 8712,
      "Ġvulner": 8713,
      "Ġtooth": 8714,
      "Ġobserved": 8715,
      "zzle": 8716,
      "home": 8717,
      "rend": 8718,
      "Rec": 8719,
      "Ġmedication": 8720,
      "Ġwindows": 8721,
      "Ġlocate": 8722,
      "IV": 8723,
      "Ġtechnologies": 8724,
      "ĠWil": 8725,
      "Ġmock": 8726,
      "Ġsubarray": 8727,
      "Ġnorthern": 8728,
      "ĠSus": 8729,
      "ĠArmy": 8730,
      "ĠJackson": 8731,
      "ennis": 8732,
      "Ġimporting": 8733,
      "ocol": 8734,
      "Ġwebpage": 8735,
      "Ġserial": 8736,
      "Ġinspired": 8737,
      "Ġ2005": 8738,
      "Ġepochs": 8739,
      "Ġstraw": 8740,
      "Ġtherapy": 8741,
      "ĠTony": 8742,
      "Ġanimation": 8743,
      "Ġaudio": 8744,
      "Ġcogn": 8745,
      "omial": 8746,
      "Ġfav": 8747,
      "Ġcombat": 8748,
      "Ġcapabilities": 8749,
      "ĠSpace": 8750,
      "ĠDiv": 8751,
      "ĠLoc": 8752,
      "linear": 8753,
      "rink": 8754,
      "iden": 8755,
      "Ġunsure": 8756,
      "pute": 8757,
      "ĠCommun": 8758,
      "Ġconcrete": 8759,
      "Ġroughly": 8760,
      "Ġparticipants": 8761,
      "Ġannual": 8762,
      "pm": 8763,
      "ĠDC": 8764,
      "ĠIre": 8765,
      "Ġhits": 8766,
      "ĠCath": 8767,
      "ĠMS": 8768,
      "Ġthrowing": 8769,
      "ABLE": 8770,
      "Ġ'/": 8771,
      "Ġoccurrence": 8772,
      "Ġconverting": 8773,
      "ĠBasically": 8774,
      "Ġ${": 8775,
      "sequence": 8776,
      "ĠLife": 8777,
      "Ġbones": 8778,
      "Ġawesome": 8779,
      "Ġdemonstrate": 8780,
      "Regression": 8781,
      "gex": 8782,
      "ĠDirect": 8783,
      "Ġexpenses": 8784,
      "Ġemissions": 8785,
      "Ġantib": 8786,
      "loss": 8787,
      "info": 8788,
      "Ġpregnant": 8789,
      "ĠAND": 8790,
      "Ġpoem": 8791,
      "ponse": 8792,
      "fetch": 8793,
      "two": 8794,
      "yan": 8795,
      "address": 8796,
      "Ġmistakes": 8797,
      "Ġunknown": 8798,
      "Ġfaculty": 8799,
      "Ġowned": 8800,
      "Ġinqu": 8801,
      "Ġdestroyed": 8802,
      "was": 8803,
      "Ġintellect": 8804,
      "Ġgear": 8805,
      "Ġairport": 8806,
      "Ġhabits": 8807,
      "Ġduplicates": 8808,
      "Ġtheore": 8809,
      "Ġresidents": 8810,
      "ĠCat": 8811,
      "Ġappends": 8812,
      "iano": 8813,
      "sal": 8814,
      "Ġvowels": 8815,
      "95": 8816,
      "istant": 8817,
      "Ġwashing": 8818,
      "oker": 8819,
      "rows": 8820,
      "Ġjumping": 8821,
      "Ġparaphrases": 8822,
      "(*": 8823,
      "ĠPerhaps": 8824,
      "ĠWhats": 8825,
      "cross": 8826,
      "Ġjava": 8827,
      "Ġhardware": 8828,
      "onic": 8829,
      "Ġdust": 8830,
      "calculate": 8831,
      "Ġqueries": 8832,
      "iking": 8833,
      "ĠInstall": 8834,
      "BS": 8835,
      "endar": 8836,
      "IG": 8837,
      "ĠNumber": 8838,
      "itable": 8839,
      "Ġtheories": 8840,
      "Ġmentioning": 8841,
      "Ġfails": 8842,
      "adow": 8843,
      "Ġclaimed": 8844,
      "Ġfemin": 8845,
      "default": 8846,
      "Ġphase": 8847,
      "Ġunion": 8848,
      "Ġpour": 8849,
      "Ġmere": 8850,
      "Ġquantum": 8851,
      "Ġhasn": 8852,
      "Ġoptimization": 8853,
      "Ġpicked": 8854,
      "Ġretire": 8855,
      "Ġrecall": 8856,
      "secutive": 8857,
      "Ġnums": 8858,
      "Ġpromoting": 8859,
      "Ġhiring": 8860,
      "ĠUpon": 8861,
      "ĠVARCHAR": 8862,
      "Ġappreciation": 8863,
      "Ġexit": 8864,
      "Ġinstant": 8865,
      "Ġknock": 8866,
      "ĠClinton": 8867,
      "rot": 8868,
      "Ġfeatured": 8869,
      "96": 8870,
      "Ġguilty": 8871,
      "ui": 8872,
      "Ġlst": 8873,
      "ourse": 8874,
      "Ġslice": 8875,
      "Ġconcert": 8876,
      "Ġgym": 8877,
      "Ġwasnt": 8878,
      "kens": 8879,
      "Ġstability": 8880,
      "Ġminimize": 8881,
      "Ġrefrig": 8882,
      "Ġestimated": 8883,
      "ifting": 8884,
      "aped": 8885,
      "mond": 8886,
      "Ġfunds": 8887,
      "Ġfence": 8888,
      "ĠSequ": 8889,
      "Ġnarrow": 8890,
      "Ġgentle": 8891,
      "oston": 8892,
      "Ġphilosophical": 8893,
      "Ġ{\\": 8894,
      "Ġproduces": 8895,
      "archy": 8896,
      "Ġconvention": 8897,
      "Ġnewspaper": 8898,
      "roph": 8899,
      "Ġridicul": 8900,
      "duc": 8901,
      "Ġhonor": 8902,
      "Ġrig": 8903,
      "Ġimplications": 8904,
      "Ġcolleagues": 8905,
      "chemy": 8906,
      "Ġbalanced": 8907,
      "Or": 8908,
      "ĠEmploy": 8909,
      "gender": 8910,
      "Ġsustainable": 8911,
      "pathy": 8912,
      "Ġreform": 8913,
      "Ġimprovement": 8914,
      "Ġconsumer": 8915,
      "Ġ<-": 8916,
      "Ġcarried": 8917,
      "Ġregret": 8918,
      "Ġinsult": 8919,
      "nFeel": 8920,
      "Ġpopulations": 8921,
      "Ġdecides": 8922,
      "Ġfreeze": 8923,
      "Ġfre": 8924,
      "Ġinsights": 8925,
      "Ġnltk": 8926,
      "server": 8927,
      "ĠMicrosoft": 8928,
      "For": 8929,
      "Ġmold": 8930,
      "Ġrepeat": 8931,
      "Ġscan": 8932,
      "Ġfactual": 8933,
      "Ġchopped": 8934,
      "Ġeverywhere": 8935,
      "ĠProblem": 8936,
      "Ġfluid": 8937,
      "Ġconfirmed": 8938,
      "tsx": 8939,
      "initely": 8940,
      "athered": 8941,
      "ĠAdam": 8942,
      "ĠWall": 8943,
      "Ġjustify": 8944,
      "Ġfossil": 8945,
      "types": 8946,
      "ĠSec": 8947,
      "Ġredd": 8948,
      "Ġbags": 8949,
      "ĠThough": 8950,
      "route": 8951,
      "za": 8952,
      "Ġcm": 8953,
      "Ġtoile": 8954,
      "ronic": 8955,
      "Ġlogically": 8956,
      "ogether": 8957,
      "ractions": 8958,
      "Ġrul": 8959,
      "ĠGra": 8960,
      "Ġbomb": 8961,
      "Ġexceed": 8962,
      "Ġapples": 8963,
      "Ġconj": 8964,
      "ĠSteve": 8965,
      "Ġcompound": 8966,
      "Ġdiffer": 8967,
      "Ġrepeatedly": 8968,
      "ĠBusiness": 8969,
      "Ġapproaches": 8970,
      "ĠService": 8971,
      "Ġinterviews": 8972,
      "ashes": 8973,
      "Ġtested": 8974,
      "UI": 8975,
      "Ġteaspoon": 8976,
      "Ġclosing": 8977,
      "ĠPlace": 8978,
      "ĠBu": 8979,
      "Ġinitialized": 8980,
      "255": 8981,
      "ĠAustralian": 8982,
      "Don": 8983,
      "Ġaligns": 8984,
      "Ġimports": 8985,
      "stack": 8986,
      "Ġdetermines": 8987,
      "Ġconsistency": 8988,
      "ĠSl": 8989,
      "outs": 8990,
      "bi": 8991,
      "Ġgiant": 8992,
      "Ġcomma": 8993,
      "Ġ2018": 8994,
      "Ġreplacement": 8995,
      "cifically": 8996,
      "Ġoblig": 8997,
      "Ġparking": 8998,
      "ĠMachine": 8999,
      "quality": 9000,
      "reshold": 9001,
      "ĠSpain": 9002,
      "Ġaffects": 9003,
      "ĠRepublicans": 9004,
      "ĠPacific": 9005,
      "ju": 9006,
      "tree": 9007,
      "ĠOrgan": 9008,
      "Ġpandemic": 9009,
      "pers": 9010,
      "Ġwake": 9011,
      "ĠEst": 9012,
      "Ġaggress": 9013,
      "Ġdefinitive": 9014,
      "Ġiconic": 9015,
      "77": 9016,
      "ĠMongoDB": 9017,
      "Ġnic": 9018,
      "ckets": 9019,
      "Ġwhats": 9020,
      "ĠSenate": 9021,
      "fire": 9022,
      "Ġfacilit": 9023,
      "ĠJer": 9024,
      "Ġreduces": 9025,
      "Ġalongside": 9026,
      "nNote": 9027,
      "ita": 9028,
      "ĠSur": 9029,
      "upper": 9030,
      "Ġdecline": 9031,
      "igan": 9032,
      "Ġmanual": 9033,
      "inction": 9034,
      "aylor": 9035,
      "ĠMike": 9036,
      "game": 9037,
      "Ġretail": 9038,
      "Ġlambda": 9039,
      "Ġuniform": 9040,
      "Ġsteak": 9041,
      "graph": 9042,
      "Ġfest": 9043,
      "Ġease": 9044,
      "ogy": 9045,
      "Ġtriple": 9046,
      "Ġlandlord": 9047,
      "Ġtokens": 9048,
      "Ġnu": 9049,
      "ĠSoviet": 9050,
      "ĠPred": 9051,
      "Provider": 9052,
      "ĠBern": 9053,
      "Ġrelate": 9054,
      "Ġ->": 9055,
      "Ġdictionaries": 9056,
      "Ġspecialized": 9057,
      "Ġpreventing": 9058,
      "Ġevaluation": 9059,
      "ĠHall": 9060,
      "Ġspray": 9061,
      "Ġassumes": 9062,
      "Let": 9063,
      "Ġhorm": 9064,
      "Ġrefere": 9065,
      "ĠStand": 9066,
      "Ġmultipl": 9067,
      "ĠMusic": 9068,
      "dog": 9069,
      "ĠJones": 9070,
      "look": 9071,
      "Ġaccused": 9072,
      "OW": 9073,
      "Ġparallel": 9074,
      "Ġnegatively": 9075,
      "'}": 9076,
      "xx": 9077,
      "Ġconservative": 9078,
      "ĠBer": 9079,
      "ĠIreland": 9080,
      "occ": 9081,
      "Ġves": 9082,
      "Ġimpacts": 9083,
      "Ġpermanent": 9084,
      "Ġculinary": 9085,
      "Load": 9086,
      "Ġpod": 9087,
      "Ġhired": 9088,
      "Ġsteam": 9089,
      "Ġwound": 9090,
      "ĠDra": 9091,
      "Ġdrivers": 9092,
      "ĠMuse": 9093,
      "ĠTurk": 9094,
      "Ġdisappointment": 9095,
      "Ġlying": 9096,
      "Ġkm": 9097,
      "Ġrecover": 9098,
      "ĠUN": 9099,
      "Ġletting": 9100,
      "cover": 9101,
      "Ġmit": 9102,
      "Ġhumanity": 9103,
      "Ġcheaper": 9104,
      "andas": 9105,
      "Ġtense": 9106,
      "nection": 9107,
      "ĠPop": 9108,
      "Ġinternship": 9109,
      "Ġterritory": 9110,
      "Ġped": 9111,
      "sim": 9112,
      "sters": 9113,
      "ĠMinister": 9114,
      "gt": 9115,
      "inating": 9116,
      "umes": 9117,
      "ĠFunction": 9118,
      "ĠJeff": 9119,
      "Ġsimult": 9120,
      "Ġpolar": 9121,
      "answer": 9122,
      "Ġdipl": 9123,
      "days": 9124,
      "ĠForce": 9125,
      "isted": 9126,
      "Math": 9127,
      "cap": 9128,
      "ĠLake": 9129,
      "ĠRad": 9130,
      "affe": 9131,
      "drop": 9132,
      "Ġ1960": 9133,
      "acon": 9134,
      "month": 9135,
      "points": 9136,
      "olen": 9137,
      "Ġovercome": 9138,
      "Ġobj": 9139,
      "azi": 9140,
      "accuracy": 9141,
      "Ġdisable": 9142,
      "sche": 9143,
      "86": 9144,
      "abc": 9145,
      "Ġappended": 9146,
      "ĠDetailed": 9147,
      "ĠScot": 9148,
      "ĠIran": 9149,
      "Vectorizer": 9150,
      "ingers": 9151,
      "Ġchemicals": 9152,
      "Ġsends": 9153,
      "hire": 9154,
      "ĠJane": 9155,
      "ĠFahrenheit": 9156,
      "ologists": 9157,
      "Ġstretch": 9158,
      "ĠTell": 9159,
      "liament": 9160,
      "Ġguns": 9161,
      "Ġevident": 9162,
      "ĠIter": 9163,
      "Ġgap": 9164,
      "Ġproport": 9165,
      "alph": 9166,
      "idx": 9167,
      "Ġtonight": 9168,
      "war": 9169,
      "ĠHaving": 9170,
      "Ġresume": 9171,
      "pyplot": 9172,
      "Ġlucky": 9173,
      "Ġlect": 9174,
      "Ġtrave": 9175,
      "oli": 9176,
      "lements": 9177,
      "stop": 9178,
      "Ġinches": 9179,
      "Ġmissed": 9180,
      "ĠJose": 9181,
      "Ġadvantages": 9182,
      "ĠCommon": 9183,
      "source": 9184,
      "Ġholes": 9185,
      "fibonacci": 9186,
      "ĠTrain": 9187,
      "Ġheaders": 9188,
      "World": 9189,
      "Ġparticipate": 9190,
      "zip": 9191,
      "Ġremained": 9192,
      "ĠNever": 9193,
      "xa": 9194,
      "Ġevolved": 9195,
      "Ġpasses": 9196,
      "Ġnutr": 9197,
      "Ġvaccine": 9198,
      "SE": 9199,
      "ĠHind": 9200,
      "click": 9201,
      "Ġreplacing": 9202,
      "usters": 9203,
      "Ġraising": 9204,
      "JS": 9205,
      "ĠAh": 9206,
      "Ġnoted": 9207,
      "ĠFound": 9208,
      "Ġpreference": 9209,
      "Ġtoy": 9210,
      "Ġscholars": 9211,
      "Ġbarely": 9212,
      "abs": 9213,
      "ĠDa": 9214,
      "Ġweapon": 9215,
      "comfortable": 9216,
      "worth": 9217,
      "ĠMic": 9218,
      "Ġingredient": 9219,
      "cs": 9220,
      "Ġengines": 9221,
      "ola": 9222,
      "ĠMen": 9223,
      "Ġexploring": 9224,
      "Ġengagement": 9225,
      "Ġthesis": 9226,
      "Ġhung": 9227,
      "apes": 9228,
      "Ġcuts": 9229,
      "Ġscientist": 9230,
      "Ġcompens": 9231,
      "ruption": 9232,
      "Ġmonit": 9233,
      "ĠUlt": 9234,
      "Ġmixing": 9235,
      "ĠMarvel": 9236,
      "Ġfulfill": 9237,
      "Ġven": 9238,
      "Ġreco": 9239,
      "ĠMexican": 9240,
      "Ġearned": 9241,
      "ĠDemocratic": 9242,
      "ĠLoad": 9243,
      "Ġcinem": 9244,
      "Ġbars": 9245,
      "Ġroof": 9246,
      "note": 9247,
      "ĠON": 9248,
      "Ġloaded": 9249,
      "Ġpermission": 9250,
      "lessly": 9251,
      "Ġemphasis": 9252,
      "Ġbind": 9253,
      "ĠSpring": 9254,
      "conf": 9255,
      "31": 9256,
      "fr": 9257,
      "ĠQueen": 9258,
      "Ġcout": 9259,
      "Ġexpansion": 9260,
[...]
